const unsigned char material_classifier_tflite_quant[] = {32,0,0,0,84,70,76,51,0,0,0,0,20,0,32,0,28,0,24,0,20,0,16,0,12,0,0,0,8,0,4,0,20,0,0,0,28,0,0,0,152,0,0,0,240,0,0,0,172,47,0,0,188,47,0,0,16,59,0,0,3,0,0,0,1,0,0,0,16,0,0,0,0,0,10,0,16,0,12,0,8,0,4,0,10,0,0,0,12,0,0,0,28,0,0,0,60,0,0,0,15,0,0,0,115,101,114,118,105,110,103,95,100,101,102,97,117,108,116,0,1,0,0,0,4,0,0,0,144,255,255,255,10,0,0,0,4,0,0,0,8,0,0,0,111,117,116,112,117,116,95,48,0,0,0,0,1,0,0,0,4,0,0,0,58,208,255,255,4,0,0,0,15,0,0,0,107,101,114,97,115,95,116,101,110,115,111,114,95,55,50,0,2,0,0,0,52,0,0,0,4,0,0,0,220,255,255,255,13,0,0,0,4,0,0,0,19,0,0,0,67,79,78,86,69,82,83,73,79,78,95,77,69,84,65,68,65,84,65,0,8,0,12,0,8,0,4,0,8,0,0,0,12,0,0,0,4,0,0,0,19,0,0,0,109,105,110,95,114,117,110,116,105,109,101,95,118,101,114,115,105,111,110,0,14,0,0,0,184,46,0,0,176,46,0,0,160,45,0,0,16,45,0,0,128,41,0,0,84,41,0,0,68,33,0,0,180,0,0,0,172,0,0,0,164,0,0,0,156,0,0,0,148,0,0,0,116,0,0,0,4,0,0,0,238,208,255,255,4,0,0,0,96,0,0,0,12,0,0,0,8,0,14,0,8,0,4,0,8,0,0,0,16,0,0,0,40,0,0,0,0,0,6,0,8,0,4,0,6,0,0,0,4,0,0,0,1,0,0,0,234,3,0,0,12,0,24,0,20,0,16,0,12,0,4,0,12,0,0,0,202,127,53,155,54,92,85,93,2,0,0,0,2,0,0,0,4,0,0,0,6,0,0,0,50,46,49,57,46,48,0,0,90,209,255,255,4,0,0,0,16,0,0,0,50,46,49,55,46,48,0,0,0,0,0,0,0,0,0,0,212,198,255,255,216,198,255,255,220,198,255,255,224,198,255,255,134,209,255,255,4,0,0,0,128,32,0,0,72,79,155,160,221,70,248,91,247,238,202,53,108,13,208,79,209,113,240,192,211,107,233,11,59,211,73,43,42,102,89,227,199,175,109,200,40,127,231,70,17,181,104,147,16,178,243,78,121,21,152,26,235,230,248,180,91,179,250,60,139,55,235,32,178,140,22,3,3,206,225,188,249,254,84,104,23,69,212,19,24,189,222,82,194,39,71,238,63,165,68,212,81,42,202,49,198,10,25,250,149,199,58,35,156,69,173,35,232,63,252,64,241,14,95,183,2,57,211,172,242,84,168,229,186,230,163,85,249,251,89,210,2,69,114,70,191,176,32,252,74,148,251,210,249,57,162,48,79,8,253,17,4,228,50,193,207,220,162,209,230,53,238,68,232,163,251,46,6,250,20,252,145,162,140,164,33,14,170,144,255,219,210,189,186,185,208,68,10,205,68,172,195,219,186,249,227,34,90,127,105,213,93,56,38,66,250,32,212,206,248,38,167,79,222,92,36,55,112,187,205,226,68,101,176,158,215,251,187,247,178,23,64,56,51,184,39,212,249,19,246,245,19,214,10,100,32,92,230,80,186,63,194,93,57,87,237,97,192,215,9,199,178,143,171,63,202,63,195,67,223,195,161,236,23,33,213,16,35,51,112,61,18,30,70,67,184,240,24,64,192,243,15,91,47,36,31,14,62,172,177,25,237,147,185,252,11,159,41,185,10,57,242,186,83,198,27,31,46,212,34,23,242,150,196,162,34,185,153,189,21,43,226,18,209,22,155,52,210,17,202,47,150,129,205,73,54,188,78,78,216,137,16,19,243,161,57,155,11,249,30,2,182,19,16,197,228,9,211,219,50,246,221,60,39,246,52,175,210,220,67,248,57,209,100,111,28,88,98,0,194,243,106,22,171,76,178,209,22,239,186,149,171,57,231,202,81,147,87,5,251,228,92,70,29,99,21,124,181,9,109,12,39,252,162,202,116,140,207,204,122,39,228,68,188,181,73,5,7,17,37,247,224,190,236,226,67,134,183,218,213,127,192,74,60,41,149,247,109,143,28,63,162,23,118,184,231,31,143,99,127,16,57,12,109,65,191,36,151,155,187,34,7,202,118,24,33,105,174,12,2,43,52,180,39,227,112,228,214,64,218,44,187,173,95,94,78,172,230,49,101,198,25,100,23,79,167,4,191,201,220,122,0,122,93,32,222,189,53,44,241,204,244,103,64,21,24,21,177,220,204,151,54,88,151,208,251,208,18,230,167,28,8,29,78,148,79,200,71,165,204,5,204,80,95,180,238,230,255,198,219,41,18,96,168,181,244,170,222,197,43,244,67,239,18,127,3,226,65,92,5,189,238,163,255,160,236,162,176,234,16,110,73,179,224,243,69,5,220,203,85,253,75,182,67,4,24,91,186,15,118,182,63,166,98,169,37,159,105,66,43,224,218,66,35,68,178,229,254,198,61,57,37,185,205,32,72,32,216,191,222,161,237,194,70,57,29,162,48,47,49,157,162,50,2,23,0,59,25,194,73,191,245,75,241,246,191,4,160,36,209,219,37,73,72,205,13,84,83,174,9,91,248,35,36,0,224,31,68,232,234,219,169,71,152,200,177,8,43,25,5,43,89,184,58,209,58,140,201,16,48,26,237,16,3,59,215,171,1,23,49,54,34,184,64,182,181,129,6,52,172,44,238,60,139,186,173,21,36,187,72,183,43,65,230,147,195,31,53,138,212,226,191,238,223,9,188,64,171,210,212,29,21,85,217,23,69,174,255,54,78,57,36,6,179,103,214,239,6,125,83,4,166,205,227,189,59,111,80,59,19,8,247,156,212,188,243,212,213,168,239,9,71,99,103,192,103,87,213,17,247,84,8,123,171,71,111,108,93,26,190,201,66,156,15,99,38,186,4,199,154,92,95,252,65,48,53,23,157,11,172,32,202,162,81,29,12,39,229,0,98,221,42,30,83,217,217,18,191,246,91,229,37,225,170,107,164,38,206,44,197,46,216,35,179,180,208,172,210,96,36,213,62,67,98,54,72,14,26,246,33,160,62,210,193,238,197,127,189,51,125,180,52,169,125,251,0,65,102,105,73,162,93,73,30,105,127,252,212,103,93,228,196,219,246,98,29,167,4,64,12,67,188,91,73,193,105,79,52,34,182,207,176,45,110,38,246,236,20,79,60,179,38,94,105,144,78,244,224,246,252,195,48,248,163,17,234,22,200,108,101,208,141,3,55,193,249,105,238,108,183,39,119,144,6,98,15,18,250,222,6,66,184,157,214,72,253,17,154,227,172,235,92,97,251,36,251,29,61,23,42,43,203,233,6,233,133,146,232,202,149,229,184,83,139,102,181,53,242,31,3,58,83,111,55,70,199,29,23,98,92,23,254,172,180,71,187,24,80,38,87,210,227,46,103,4,127,45,73,211,156,57,107,57,120,226,170,16,108,166,69,30,175,52,192,93,74,37,33,209,85,12,25,184,108,153,206,142,25,39,251,30,143,221,39,131,151,58,34,48,59,50,10,140,55,10,182,250,18,75,171,52,19,173,141,204,196,120,97,215,146,222,143,201,140,27,167,181,207,255,78,110,108,96,185,102,171,29,212,127,98,34,168,156,204,65,210,220,113,46,137,243,78,146,231,167,69,21,184,167,71,173,164,207,41,188,70,6,246,10,160,18,176,203,183,83,159,110,240,160,3,68,206,81,20,1,105,180,13,127,247,9,85,28,25,100,31,89,50,227,63,156,46,4,170,97,56,200,115,94,146,107,216,104,148,228,169,106,146,184,179,252,216,177,190,18,216,65,140,92,21,197,182,192,96,184,92,181,39,193,194,54,106,118,9,84,205,156,58,44,9,93,236,223,101,157,44,162,202,42,1,35,234,221,220,40,77,202,163,185,135,250,243,148,214,54,47,164,12,214,186,87,92,176,74,202,16,20,188,41,54,55,228,195,208,232,209,81,32,1,78,180,236,254,43,39,192,30,52,58,61,180,226,36,178,56,48,155,7,0,16,24,213,244,48,89,19,53,181,3,215,8,236,58,215,92,234,10,214,184,163,163,47,54,199,172,212,219,204,181,240,148,64,211,170,242,19,64,140,60,41,59,247,4,164,204,233,205,26,96,69,174,34,208,159,13,241,167,230,221,176,195,26,44,182,246,129,163,188,239,30,183,209,175,208,31,225,34,245,1,14,62,3,198,229,62,48,35,214,205,220,225,3,75,15,29,59,243,84,35,31,1,216,209,249,191,127,10,83,63,170,53,248,7,211,46,20,63,197,127,4,248,158,59,169,75,179,65,54,175,158,170,158,13,97,95,253,206,82,223,40,154,82,29,180,49,5,169,82,242,200,221,156,233,80,177,82,247,179,61,92,135,145,174,66,11,24,216,63,245,170,228,62,249,39,93,78,205,146,210,32,219,92,195,7,187,99,233,74,84,62,194,168,186,246,7,71,24,29,242,170,13,69,145,215,70,219,161,24,89,181,193,45,40,139,68,59,232,18,246,79,66,177,13,73,6,54,196,66,210,171,255,36,35,203,15,204,168,24,244,17,95,170,53,6,15,165,254,216,63,18,219,234,141,243,178,197,73,214,194,170,70,65,166,65,177,29,6,208,216,173,218,54,141,193,6,237,197,239,2,92,218,231,50,217,72,127,39,13,87,26,207,223,255,13,251,16,44,3,64,187,254,218,149,114,210,220,251,15,10,184,76,220,61,59,47,124,218,108,81,32,41,35,244,246,72,250,227,221,54,191,2,61,145,155,4,90,20,53,197,213,75,45,233,187,171,71,210,173,154,44,207,200,79,149,13,217,153,193,209,34,233,214,209,207,178,99,42,76,238,15,30,207,32,199,84,121,12,180,39,129,208,17,181,189,50,188,217,19,169,53,225,42,239,159,244,156,32,20,75,46,137,149,238,28,3,212,42,24,202,194,207,0,187,57,80,252,95,221,214,80,59,2,230,6,40,97,1,62,3,20,52,52,234,7,94,74,5,219,226,199,58,248,226,193,47,23,12,28,63,18,74,210,208,55,65,44,105,0,2,255,174,198,27,9,219,168,8,240,18,25,8,186,229,228,28,173,178,19,24,175,62,188,228,44,62,80,180,190,251,233,34,1,205,41,5,61,163,75,42,179,62,244,61,198,57,26,200,49,75,25,157,75,3,183,10,181,221,81,244,27,87,30,235,63,208,86,240,247,170,231,78,204,174,160,215,180,16,15,161,41,33,192,152,150,230,201,170,173,10,182,189,15,92,187,34,152,211,192,170,82,176,72,77,10,188,129,71,186,232,21,243,241,58,17,174,214,236,152,52,168,191,167,155,236,222,157,163,2,239,179,78,213,223,215,209,211,77,97,199,82,189,18,66,238,67,51,76,208,201,61,27,154,34,64,57,236,251,237,194,177,65,72,4,27,251,234,66,24,31,24,43,198,43,167,199,173,201,13,18,36,95,212,33,177,244,8,29,89,101,109,201,21,220,98,40,219,243,6,218,238,242,201,86,26,201,227,240,196,36,193,228,232,35,28,80,60,69,219,214,231,51,39,69,237,215,215,60,234,189,6,195,164,36,188,235,208,1,99,242,186,7,43,64,60,174,181,195,43,25,246,157,82,0,19,171,254,147,129,222,244,51,173,48,1,253,64,12,11,200,155,215,16,239,223,211,83,104,213,206,191,165,175,22,33,38,184,55,198,55,173,49,6,58,225,73,228,60,51,71,176,1,138,136,184,49,53,252,53,36,39,199,200,192,53,162,182,163,249,71,61,196,73,81,182,220,40,201,0,85,33,14,78,44,205,80,62,24,211,247,199,53,175,37,214,189,64,165,42,31,35,4,172,154,79,44,12,218,236,156,135,246,164,37,59,2,147,204,207,80,164,200,33,183,84,191,60,182,226,66,183,129,8,11,188,225,160,32,44,11,37,49,184,213,205,244,232,231,206,220,136,28,2,3,23,201,208,225,174,169,2,1,63,10,57,201,3,82,81,211,207,5,191,86,26,67,221,24,186,82,104,114,112,234,190,175,63,225,175,105,241,110,163,32,63,238,222,92,115,221,206,168,235,113,248,118,15,38,79,209,17,223,76,216,29,33,170,63,110,61,79,248,34,150,90,150,212,246,53,89,180,79,53,85,90,79,8,67,183,118,65,163,208,199,89,93,211,102,190,202,6,151,19,16,244,101,88,232,97,14,216,104,94,239,53,83,215,55,246,88,249,88,28,64,223,142,11,18,199,202,66,237,66,198,243,55,46,233,202,171,37,39,9,253,54,129,48,61,236,160,19,188,8,223,75,180,243,102,24,84,150,169,216,178,14,87,42,203,60,77,222,101,89,209,77,244,186,74,5,4,79,207,30,233,190,161,180,206,25,99,212,34,220,238,37,156,200,81,41,186,4,129,227,226,198,26,10,23,198,9,172,153,180,5,28,165,252,203,69,246,2,80,32,22,157,190,61,254,195,214,217,187,246,161,77,26,158,173,73,188,156,237,48,164,61,206,242,200,244,253,74,73,209,241,188,66,238,250,220,78,234,62,57,234,177,54,73,192,4,241,208,24,54,13,49,153,50,34,255,230,219,219,179,7,170,11,3,183,50,72,67,38,202,7,43,61,214,199,2,77,19,29,20,225,70,48,214,192,242,202,221,18,236,227,89,192,199,38,210,241,214,251,28,76,179,246,3,54,26,249,55,2,58,60,66,66,183,209,2,53,192,190,180,247,246,14,248,212,66,91,253,69,196,77,177,201,34,24,29,193,223,10,232,8,254,70,207,1,73,181,81,236,64,195,66,206,15,208,242,33,21,55,71,254,9,160,199,244,211,191,179,1,244,251,165,170,198,199,161,30,241,14,80,184,234,32,129,179,202,181,242,164,75,206,79,251,195,27,69,201,21,228,15,200,31,218,88,180,240,213,10,35,197,54,240,157,213,173,156,186,181,201,63,206,62,225,148,7,1,64,219,42,206,96,224,94,127,235,198,38,186,9,220,43,92,90,47,92,225,107,84,157,182,218,242,67,3,255,113,189,39,153,17,8,105,234,237,73,40,77,62,49,45,182,43,187,126,34,61,92,184,0,212,232,177,221,193,43,81,33,57,254,178,71,254,82,157,4,3,203,187,47,204,56,234,203,162,43,25,224,211,55,250,235,46,204,201,145,218,203,9,188,215,168,218,184,131,57,56,63,11,152,209,126,214,168,93,86,185,37,186,254,186,145,240,187,74,73,187,241,13,79,226,176,246,71,209,154,29,86,193,87,43,57,114,99,196,28,191,218,237,111,93,212,195,170,101,10,101,244,69,44,215,174,171,244,58,39,112,248,14,62,81,51,168,106,242,207,159,23,29,9,239,242,195,84,183,90,162,3,61,51,172,104,55,107,55,115,68,52,127,17,207,223,6,214,4,226,60,17,169,249,19,165,194,228,227,77,253,245,173,140,82,229,240,45,50,203,63,145,37,45,240,209,219,34,162,28,86,3,238,173,178,215,35,150,158,132,178,208,147,38,21,9,201,17,155,233,129,237,162,22,72,161,195,252,36,170,209,28,8,22,77,9,109,232,236,69,46,194,60,27,110,172,3,184,96,226,92,81,243,73,194,61,57,87,169,171,198,193,149,201,25,3,240,12,86,72,215,13,152,250,190,169,234,158,248,62,106,98,170,50,70,221,197,67,3,200,86,7,108,181,191,93,157,214,91,166,221,42,160,150,197,212,78,206,170,10,72,36,80,71,65,219,45,251,220,242,241,37,230,237,47,81,240,68,217,212,100,226,46,190,205,199,16,26,60,16,204,232,200,157,250,41,1,76,43,186,173,7,237,226,12,173,6,27,216,176,176,189,179,56,169,191,180,225,230,167,226,199,21,218,40,235,219,48,51,219,17,218,10,165,30,240,204,67,201,40,251,80,53,234,175,23,26,7,191,221,2,209,13,31,219,222,7,194,5,13,61,19,5,34,163,228,211,209,26,189,35,21,41,129,217,6,173,244,190,31,38,52,210,25,254,201,53,173,243,25,167,69,229,216,186,18,230,227,81,31,32,233,229,9,220,38,192,233,215,0,107,246,173,23,211,255,67,74,235,84,127,229,3,223,255,28,110,246,253,75,117,18,96,251,3,46,90,121,46,221,106,27,55,233,26,214,36,46,193,205,97,225,70,64,227,219,52,58,15,210,207,248,209,196,24,199,146,166,61,239,210,194,232,156,53,38,195,32,253,249,242,255,217,236,152,57,66,204,14,210,233,44,207,35,17,154,158,175,178,41,6,17,58,75,186,58,21,91,216,68,160,49,150,255,177,254,208,78,91,209,90,167,176,53,244,237,38,20,167,230,51,2,5,244,12,136,7,32,69,245,191,28,28,174,240,255,37,234,6,94,200,254,198,31,27,30,241,91,71,184,79,104,236,31,251,81,103,232,109,0,61,230,71,153,249,96,62,233,254,49,101,19,177,21,162,174,241,97,209,41,163,207,240,9,161,240,81,234,222,4,201,218,34,23,3,155,199,77,119,75,62,86,0,86,36,205,99,78,158,68,25,240,72,158,180,144,50,208,214,38,176,34,137,34,173,101,47,71,248,90,2,173,174,20,22,21,237,67,215,178,153,189,129,2,6,167,222,81,222,91,43,31,211,215,236,161,27,221,173,67,243,35,32,17,163,89,242,63,238,18,11,195,21,43,146,81,26,90,69,144,9,41,198,60,59,166,169,222,22,38,4,188,63,200,52,0,95,249,90,104,41,22,245,222,6,77,231,186,80,43,159,33,39,12,86,240,175,229,34,13,166,74,129,138,78,86,197,108,17,238,59,162,8,182,78,6,27,253,40,35,98,51,133,235,230,23,9,65,105,208,64,34,246,242,205,178,214,60,37,19,54,210,5,183,197,88,79,188,215,36,90,248,28,191,223,248,178,6,31,176,46,231,47,20,238,72,216,9,61,201,199,6,68,219,255,84,29,236,201,166,68,28,17,231,235,239,58,139,149,56,42,244,188,164,230,137,192,166,134,17,0,242,179,129,172,211,228,241,7,162,17,158,11,81,4,231,207,210,234,191,62,251,156,83,253,182,11,54,158,30,13,198,171,241,196,56,72,51,235,194,24,46,241,184,31,50,208,39,249,193,56,212,57,39,174,244,13,72,171,81,168,17,11,227,50,44,43,226,75,60,198,35,85,18,24,82,177,43,23,192,217,209,49,182,250,188,191,57,226,83,7,20,221,150,75,59,21,81,182,251,5,214,148,246,4,115,52,134,12,70,162,60,104,155,183,42,83,91,202,228,170,27,242,205,30,155,146,28,65,54,84,57,217,75,218,29,80,102,160,171,16,123,179,79,76,49,22,222,31,127,190,101,153,52,137,154,224,31,116,151,169,228,52,103,98,197,243,11,212,95,175,201,63,170,74,107,207,212,49,52,41,39,149,176,139,251,90,65,42,192,129,234,60,228,254,184,194,25,116,253,205,10,57,73,205,158,107,239,72,121,220,136,249,199,33,138,7,93,174,160,20,40,219,129,247,231,76,63,154,49,186,254,180,154,203,130,236,175,151,174,55,64,182,23,92,83,235,223,95,164,221,14,9,5,172,116,53,220,239,66,210,236,91,95,35,1,34,219,41,245,195,178,34,247,170,95,206,164,180,240,85,165,49,255,250,60,245,195,222,253,8,38,166,245,241,23,84,9,228,180,136,2,85,28,41,187,32,224,192,68,104,200,49,219,73,192,238,15,92,41,24,233,206,165,71,200,69,244,10,62,30,165,158,224,182,243,171,223,218,172,183,239,209,193,69,41,235,219,100,204,144,210,64,4,38,59,71,177,3,230,207,69,206,5,164,53,184,223,51,194,190,36,250,81,144,180,29,194,43,36,215,93,114,13,98,44,86,237,124,119,49,42,186,230,202,94,71,35,184,76,182,233,70,173,150,214,226,73,83,93,69,99,251,228,207,35,139,170,230,220,166,252,187,178,243,242,145,94,95,65,196,16,35,88,188,59,222,84,70,150,119,68,218,73,204,159,129,220,253,37,183,253,37,134,32,39,233,173,147,29,192,35,219,226,242,210,48,78,247,196,94,198,95,171,3,18,155,154,255,197,194,237,78,89,181,200,245,77,247,202,161,50,30,50,241,207,79,62,25,26,15,160,212,102,250,173,0,55,70,112,19,80,92,242,246,47,75,239,5,127,63,63,62,79,54,8,74,18,186,10,35,33,223,244,60,217,60,223,169,186,243,190,255,175,245,161,239,41,15,10,59,185,166,8,195,20,209,243,42,24,181,49,175,19,164,90,209,179,63,214,47,44,201,195,180,244,222,216,25,197,211,243,177,215,46,12,214,92,94,13,239,15,239,41,7,13,1,164,167,237,23,22,233,200,221,189,58,211,81,226,226,237,241,47,253,233,197,245,16,156,151,239,96,90,203,33,10,186,82,73,232,36,196,226,79,73,171,179,138,176,254,130,148,137,98,180,156,43,198,60,148,198,171,17,59,15,130,225,99,167,186,147,228,147,59,226,13,215,159,187,19,174,47,41,249,247,106,176,241,30,65,186,177,162,78,219,154,217,164,1,23,98,238,63,96,14,153,160,5,21,51,186,195,132,59,29,127,21,9,246,118,45,226,50,239,96,210,72,80,246,99,210,150,144,180,94,63,150,241,85,10,158,40,251,172,73,85,221,36,246,26,163,187,16,20,60,216,207,28,206,63,67,14,171,211,34,29,219,79,216,187,221,101,62,105,15,194,16,96,164,84,44,177,42,21,11,199,177,234,194,249,195,179,217,109,9,30,104,235,84,45,243,52,70,127,100,78,3,52,28,211,175,168,49,63,202,181,8,189,24,155,67,184,229,190,51,230,61,70,41,14,43,202,213,56,83,70,97,4,98,86,62,192,211,108,178,42,40,98,218,171,163,27,35,215,29,207,60,180,224,240,98,181,164,6,46,65,2,186,166,22,205,224,6,204,59,161,189,203,15,250,78,244,30,23,182,112,4,66,21,228,26,228,236,167,51,236,98,28,35,238,206,79,1,179,78,15,154,63,227,111,232,210,243,203,16,201,251,10,166,241,190,244,129,151,175,9,24,10,182,54,176,199,56,234,56,201,241,130,84,54,72,185,5,206,72,64,212,99,59,231,247,160,76,176,161,7,249,146,5,166,30,104,214,226,172,244,70,223,133,94,220,103,29,106,58,178,243,161,66,96,223,202,92,93,16,69,58,249,254,153,37,158,214,2,167,7,109,204,208,166,88,74,88,229,55,12,97,107,222,48,175,26,27,231,8,216,56,69,204,17,251,170,252,183,58,19,255,173,40,55,231,5,35,15,246,249,55,175,4,6,18,185,70,18,180,171,238,194,188,16,250,129,19,3,182,240,21,180,17,55,16,218,179,38,37,214,211,211,62,255,211,50,241,190,48,36,12,54,207,176,49,210,192,240,245,217,214,253,247,251,233,27,240,65,232,57,161,208,21,187,182,231,248,238,183,46,231,39,75,27,232,191,206,196,9,45,33,245,53,22,61,167,253,186,15,70,205,223,60,212,77,11,252,37,29,52,7,217,217,255,8,18,94,235,18,100,199,216,91,217,209,31,162,185,50,2,196,245,232,13,232,73,56,83,191,133,197,86,199,190,160,203,89,174,178,79,195,27,197,178,237,238,230,211,246,18,86,79,8,31,110,56,19,190,43,11,91,193,37,10,30,203,178,15,129,243,159,223,155,154,234,27,139,239,183,53,149,215,43,251,176,138,149,183,79,247,48,212,95,172,198,32,198,73,168,145,31,227,131,183,9,230,36,183,13,55,193,233,213,53,24,201,80,237,224,46,104,72,223,199,25,193,194,4,168,16,217,66,158,47,36,255,253,219,240,182,254,186,52,72,229,26,250,209,97,34,245,232,59,216,249,31,12,236,51,247,2,21,224,245,187,41,46,14,218,213,49,91,197,24,226,190,61,252,202,10,105,114,53,64,217,77,39,29,219,254,237,124,98,35,72,50,19,255,30,225,63,209,80,55,223,228,227,27,35,230,238,211,211,156,169,73,224,72,3,72,127,25,16,11,60,185,172,48,210,240,103,194,73,55,218,201,200,17,34,45,24,203,184,16,221,176,225,59,84,177,45,23,6,161,76,46,235,251,231,189,246,155,2,20,208,32,196,203,188,156,212,29,239,33,88,205,66,173,127,39,214,239,53,190,255,45,195,168,192,209,81,90,31,39,52,185,215,150,69,14,68,178,206,236,8,176,62,217,227,46,58,115,29,102,64,108,105,75,28,117,50,80,81,209,200,50,15,238,195,64,2,191,204,113,34,55,182,54,184,19,80,64,8,1,162,2,222,203,4,38,192,226,1,57,247,238,18,10,162,13,34,84,171,149,253,67,252,179,76,64,244,60,191,184,223,150,245,16,243,248,252,24,159,90,61,138,229,232,63,10,204,223,76,85,95,94,61,231,53,200,232,173,29,28,25,110,62,226,74,75,20,223,1,224,47,77,174,165,232,12,196,244,245,248,205,21,96,173,243,88,163,173,182,34,236,174,206,194,250,212,13,180,254,66,147,216,11,21,83,12,155,14,197,234,207,205,222,61,211,200,73,43,91,216,122,0,33,204,210,252,250,73,76,205,204,75,84,234,4,195,66,197,64,1,191,38,71,175,43,69,103,127,76,190,185,152,32,237,234,130,152,19,147,145,47,12,108,226,207,49,183,220,213,47,225,49,166,56,228,155,141,216,136,219,80,220,180,241,185,26,232,215,69,146,215,104,103,214,35,24,246,191,70,174,180,236,43,1,19,28,245,186,165,61,98,201,71,228,174,206,32,53,158,207,169,34,175,18,153,99,232,52,46,233,122,176,108,200,93,179,33,200,3,9,167,242,223,233,201,98,254,91,234,255,47,219,220,182,250,244,7,91,156,180,196,155,97,34,21,193,104,189,60,59,1,146,183,26,41,24,1,200,148,99,32,17,127,14,16,248,217,8,11,223,43,254,254,32,38,42,198,206,22,219,153,177,237,157,30,197,66,158,43,229,83,42,57,92,181,25,27,188,184,56,196,192,7,78,23,32,178,146,129,241,7,225,45,189,245,189,53,50,254,196,211,192,28,58,176,59,246,182,154,161,25,10,206,64,200,209,232,232,164,29,10,250,249,58,233,19,207,67,245,197,222,24,196,46,252,22,232,158,43,221,192,51,235,22,214,14,8,209,165,209,49,34,195,89,195,56,11,214,9,227,172,4,23,43,249,65,155,50,39,204,23,48,191,29,184,192,238,235,45,248,203,15,30,246,211,209,36,210,65,242,23,50,71,241,235,223,250,18,90,239,231,222,29,59,188,244,189,64,8,59,165,204,69,211,251,177,129,182,155,172,87,190,118,212,189,59,204,178,226,185,69,188,178,229,47,194,192,168,154,182,0,174,155,9,51,203,35,51,190,239,167,153,194,55,66,65,102,42,204,232,28,9,28,254,12,178,68,80,186,243,208,47,173,206,231,30,139,13,66,185,84,48,209,67,118,153,188,203,229,221,195,244,158,47,216,221,135,210,230,46,175,156,16,103,59,101,247,187,191,192,73,155,139,49,238,183,74,149,246,4,73,190,10,155,95,238,51,44,242,11,201,197,207,183,164,249,234,46,164,194,87,226,72,244,18,236,124,11,190,224,59,35,228,89,63,16,244,86,89,216,204,85,81,165,68,71,58,232,3,181,202,211,253,202,209,173,163,7,187,1,88,211,60,190,3,7,73,148,194,23,195,30,81,88,245,230,170,4,254,27,90,47,90,138,84,163,207,65,200,209,89,243,12,148,229,98,71,219,161,91,53,34,64,238,17,51,57,23,77,255,30,192,218,157,9,177,129,141,139,175,28,144,98,52,198,211,78,223,181,247,66,235,79,228,196,85,134,26,155,157,32,33,26,74,17,56,239,164,40,16,30,53,27,51,41,225,29,174,190,254,40,203,190,255,28,238,15,29,50,220,44,69,212,223,6,3,231,46,181,64,56,50,196,71,167,9,228,23,67,9,30,167,244,0,225,252,218,252,164,34,234,243,37,198,15,69,208,22,213,199,143,209,53,233,230,27,230,176,251,34,180,214,206,18,232,230,207,169,171,234,174,245,23,36,150,24,193,148,129,224,246,8,232,181,222,193,72,69,46,67,187,239,1,5,178,10,87,11,216,28,66,248,164,232,210,18,7,61,213,2,48,124,209,127,191,200,29,222,108,173,233,243,245,19,102,254,227,36,190,196,56,88,227,187,6,22,248,147,38,231,199,170,156,181,24,184,214,183,193,80,18,58,200,189,9,186,247,238,158,6,32,253,19,180,183,14,68,67,189,237,30,8,38,239,34,246,12,54,191,108,47,3,250,182,232,41,222,171,220,60,255,43,230,62,67,177,2,21,49,50,61,21,31,228,10,68,33,238,210,181,65,192,20,159,208,191,244,167,172,169,83,246,53,173,219,205,194,4,244,250,232,158,237,241,225,37,50,233,34,248,188,40,188,222,240,97,178,67,191,56,198,34,231,7,157,193,211,230,157,186,86,186,11,40,152,152,129,167,212,224,28,7,130,224,211,164,245,203,25,5,187,17,158,252,154,196,253,172,253,152,55,227,33,157,33,184,147,223,1,243,55,56,18,146,233,56,183,239,48,202,27,189,216,166,180,174,12,250,59,219,186,242,46,195,193,247,233,252,39,34,70,215,189,193,12,232,201,239,25,199,54,62,63,153,206,72,34,20,82,65,203,49,32,50,45,48,206,20,47,68,6,170,76,18,242,10,12,228,81,242,178,44,48,65,55,190,51,197,28,16,59,224,7,17,142,233,239,19,20,240,219,43,230,197,227,242,160,172,198,37,197,0,89,56,90,209,199,34,226,35,249,56,63,44,14,201,172,178,189,129,166,202,212,21,255,24,41,155,240,210,180,231,236,233,56,47,6,199,165,148,186,76,43,85,232,175,177,197,30,54,244,7,158,197,26,18,7,9,1,146,138,243,49,50,188,246,34,64,201,226,233,60,60,38,213,16,37,41,18,56,19,46,250,221,212,64,81,77,174,75,1,185,204,40,77,183,172,2,29,7,247,136,214,191,21,108,207,99,247,204,95,90,223,25,92,163,86,22,36,45,117,185,97,66,235,235,86,28,173,211,224,114,55,112,113,118,171,163,110,127,105,250,53,16,215,187,110,240,211,95,72,70,88,222,53,7,108,7,172,118,124,147,98,217,255,64,81,3,164,106,247,92,200,72,38,235,114,189,179,125,17,51,240,11,45,75,236,17,20,87,60,35,34,102,221,57,234,77,20,169,85,16,249,199,221,85,187,193,229,10,215,101,129,228,122,3,146,17,225,1,173,211,232,161,85,13,113,174,160,248,207,92,86,246,152,230,163,182,11,232,155,105,229,188,113,250,16,88,20,70,213,91,192,196,231,36,236,223,114,212,13,66,31,114,74,225,244,67,217,174,17,253,160,239,12,156,246,95,255,63,160,178,74,238,10,175,197,42,183,234,12,250,215,213,66,205,228,14,31,129,19,206,178,198,112,176,88,9,188,53,4,203,43,163,227,53,107,153,207,233,238,183,103,212,254,255,119,9,213,88,57,110,95,86,64,227,32,238,59,240,43,220,217,252,64,27,78,97,236,157,85,186,180,189,252,33,108,205,188,205,234,228,120,54,232,19,220,197,67,248,3,41,174,167,97,75,64,126,219,76,72,125,57,109,232,160,11,198,10,26,79,210,105,4,197,121,72,193,253,186,254,176,47,24,179,217,220,194,91,209,195,38,14,159,17,223,2,86,162,188,32,169,151,153,146,66,4,29,164,41,10,67,159,21,184,219,57,28,24,59,37,92,37,183,191,22,4,29,87,241,8,199,217,77,145,220,87,190,21,64,63,194,79,172,51,252,240,127,64,97,183,233,232,52,198,0,251,26,211,193,10,170,217,39,253,225,23,5,227,121,32,236,85,142,36,73,164,50,216,62,106,47,91,127,203,46,206,1,117,118,5,197,103,10,248,94,178,18,165,18,245,198,33,117,80,80,83,47,13,212,235,229,106,108,225,0,64,221,174,49,14,223,23,40,212,137,13,220,34,195,98,227,72,254,251,169,232,108,87,60,203,53,2,17,35,94,223,2,70,36,167,95,255,250,153,69,237,21,31,99,136,191,144,218,118,91,225,215,112,23,168,75,206,41,201,46,42,163,8,95,51,160,38,183,150,195,187,161,76,236,30,216,26,131,75,71,252,66,156,192,80,129,144,152,144,47,221,22,19,159,59,241,182,18,179,181,235,212,7,53,22,46,40,187,127,104,203,245,198,232,244,77,181,200,198,75,178,234,193,87,177,237,200,168,221,32,150,66,235,232,26,253,135,169,203,234,145,203,49,193,144,53,180,44,237,171,65,37,108,3,48,14,67,37,5,246,89,203,90,181,245,103,187,44,253,208,210,35,27,91,86,167,49,244,0,201,56,95,54,8,167,42,44,182,43,213,179,6,211,33,46,63,38,221,30,72,174,62,211,187,229,11,8,219,175,207,209,222,181,41,250,68,82,249,161,49,171,40,222,241,214,60,240,199,42,35,129,47,59,220,111,186,87,249,176,153,47,243,28,51,202,82,98,61,248,180,73,177,196,167,201,86,241,255,210,216,3,32,157,252,215,196,3,28,227,188,187,23,141,247,213,176,154,18,171,203,176,166,158,215,132,61,96,77,211,158,166,180,234,56,185,202,225,0,59,174,146,197,75,226,249,246,188,73,96,91,197,179,240,64,88,0,230,34,75,55,102,88,31,228,3,246,69,203,149,1,31,83,83,27,189,22,11,62,14,49,161,97,0,164,9,240,160,174,58,225,105,173,199,103,179,178,49,204,202,91,53,96,229,218,248,221,48,171,95,168,86,247,57,73,23,28,209,96,173,24,87,4,243,112,245,74,216,172,71,242,108,34,241,194,118,207,192,190,38,233,160,223,68,28,33,32,129,206,158,202,23,1,79,193,224,33,205,15,12,238,185,246,4,19,164,255,223,16,169,175,249,13,202,192,162,236,200,241,249,53,58,175,82,8,197,144,249,215,188,238,239,4,178,21,28,163,171,85,48,199,32,94,244,49,220,190,222,19,79,207,223,176,179,46,218,65,231,239,19,81,159,94,190,40,64,64,221,8,41,229,78,32,234,180,205,192,162,25,24,246,44,52,80,226,16,244,70,138,143,60,206,162,149,223,182,27,14,149,33,139,7,46,11,95,50,8,193,252,84,252,89,255,183,208,176,23,206,27,143,18,200,208,87,233,8,25,58,34,57,39,160,231,251,98,124,172,82,2,21,12,188,221,183,42,0,26,199,162,142,53,24,91,162,136,248,136,60,51,54,202,133,16,25,35,129,201,1,152,30,251,137,79,200,51,88,253,39,251,188,224,254,0,40,0,226,253,64,187,252,151,21,31,218,155,150,51,93,182,215,101,223,184,21,140,7,147,6,31,197,168,15,230,240,66,182,36,3,251,35,184,75,4,129,240,235,73,164,40,160,94,87,156,43,202,254,91,203,108,99,189,93,227,157,13,40,79,46,63,27,12,192,106,196,49,14,77,252,2,76,58,175,108,24,182,58,166,37,67,17,201,47,50,201,41,205,167,97,52,6,213,71,1,5,33,219,57,238,116,73,254,208,1,232,225,217,241,81,248,65,117,193,204,76,217,42,181,21,187,184,214,249,29,86,191,10,24,207,65,243,11,216,80,93,245,223,62,173,4,188,226,236,235,166,83,254,151,68,219,60,47,141,229,5,152,178,29,195,209,212,210,143,43,68,173,151,74,221,149,129,11,248,135,14,21,11,30,207,165,39,11,162,152,185,31,202,85,28,65,9,225,182,46,90,236,75,161,7,30,173,53,249,214,21,42,212,219,200,7,41,216,212,167,86,187,202,5,71,223,198,9,225,71,84,65,9,7,17,34,81,75,52,212,242,181,237,35,238,93,168,36,91,54,86,185,229,184,199,27,92,243,219,78,87,185,39,25,39,213,52,71,38,217,229,209,52,175,46,227,21,60,203,231,226,221,233,236,16,54,213,186,246,13,213,189,15,28,243,29,243,28,13,184,50,76,55,178,222,182,0,47,217,15,248,233,171,33,231,175,190,61,253,83,108,101,95,64,245,175,178,235,102,104,127,51,84,29,175,70,67,200,32,53,65,229,34,186,27,3,1,243,234,187,228,75,235,94,13,25,242,185,59,59,13,22,186,211,59,190,229,67,61,254,235,197,255,5,8,252,188,237,67,90,196,44,24,54,43,15,193,156,167,72,232,158,234,82,34,253,158,177,160,11,4,43,15,217,47,177,187,51,251,20,246,233,57,192,70,248,44,59,196,97,52,67,93,50,80,236,33,162,108,191,25,2,213,188,250,70,223,236,198,91,173,255,71,242,244,189,60,34,193,234,227,190,78,222,15,36,197,230,62,174,28,54,220,209,18,158,41,50,18,58,192,223,12,214,182,6,248,79,30,236,13,193,97,152,18,216,205,40,133,0,139,41,193,93,2,63,251,252,212,55,71,182,201,227,252,50,170,191,44,62,35,198,21,127,25,228,58,58,184,56,149,56,174,156,238,28,185,123,54,3,72,244,172,206,157,232,67,223,52,180,103,126,172,220,162,73,126,65,239,96,178,127,255,49,67,7,88,187,215,226,47,179,174,95,7,30,8,195,96,25,153,99,194,86,169,248,70,60,199,22,111,176,170,231,249,212,73,90,20,205,103,11,216,24,46,41,202,167,233,20,86,109,14,196,25,61,28,255,80,52,183,162,49,4,93,145,9,37,204,74,164,173,59,247,53,51,197,58,16,65,202,223,149,7,111,45,50,15,130,136,130,64,239,208,69,255,181,240,193,188,60,217,184,170,181,5,206,209,252,217,97,172,75,30,3,145,238,93,83,79,147,155,38,69,139,1,218,49,198,36,57,108,220,109,88,17,187,43,185,52,154,165,61,183,129,157,138,216,30,14,199,240,140,191,227,157,73,220,232,15,154,25,255,109,157,85,176,145,203,59,94,180,81,164,150,50,200,199,13,196,122,30,251,199,204,36,190,97,176,160,107,7,148,154,65,193,246,48,181,182,41,153,182,30,146,50,178,85,197,219,182,236,254,16,210,212,63,92,157,64,186,183,26,183,165,66,52,161,82,2,31,206,87,211,39,65,47,224,240,4,240,217,23,212,9,251,42,37,163,191,198,236,170,198,48,234,174,75,49,68,218,1,6,231,213,42,21,240,255,229,251,231,48,208,168,234,239,85,104,25,55,221,2,37,223,162,177,6,203,76,149,196,29,24,29,194,29,60,39,230,196,32,144,30,138,232,60,179,50,10,224,253,61,129,168,169,216,181,66,82,184,176,189,242,188,252,217,76,200,252,215,41,240,5,20,83,234,184,25,48,23,33,244,158,54,211,84,33,254,52,245,5,21,227,231,244,3,11,254,58,48,191,62,44,239,177,255,175,232,82,249,14,240,26,219,34,220,70,180,247,108,25,91,242,26,174,189,231,60,236,200,150,146,5,114,204,218,120,16,127,119,34,114,242,11,156,111,86,202,27,235,203,222,161,224,34,238,35,50,201,113,140,116,106,192,60,197,206,36,202,252,47,9,209,95,197,56,39,152,92,217,231,166,66,160,103,150,186,89,156,237,227,177,179,39,97,119,20,57,162,221,91,151,18,57,241,114,111,184,253,7,225,87,253,54,37,24,109,18,104,222,44,250,86,95,114,7,25,9,248,106,28,29,18,242,255,255,4,0,0,0,0,8,0,0,11,213,32,28,20,210,44,222,249,223,182,229,207,91,52,177,7,233,49,172,198,28,181,49,11,219,41,187,14,88,219,16,83,250,65,127,216,37,192,184,224,211,225,23,189,145,244,45,232,183,42,213,70,33,252,245,24,57,35,202,239,251,20,252,37,88,17,212,16,4,42,3,24,242,66,11,190,186,212,16,239,228,49,154,175,37,20,87,7,216,6,95,89,36,238,252,23,239,189,101,86,129,218,252,88,230,198,204,0,253,38,29,232,221,230,1,239,31,17,154,187,69,212,53,235,2,1,217,224,63,210,202,219,134,240,255,248,22,196,235,117,49,129,206,32,228,235,20,251,59,228,45,248,247,234,38,8,227,13,27,250,12,203,203,238,76,63,27,13,166,213,61,237,101,23,2,15,187,13,215,72,149,13,4,217,171,70,255,191,34,13,159,215,234,243,193,48,188,200,28,237,235,241,36,25,63,23,59,181,220,17,50,194,233,94,2,16,255,127,198,58,73,229,27,64,90,74,1,227,102,15,220,54,58,30,220,15,45,249,169,17,42,227,217,35,223,73,220,43,28,206,225,207,227,63,212,14,76,251,220,7,44,39,216,225,223,218,178,23,106,197,24,239,17,48,21,71,84,81,50,26,181,76,116,193,3,212,220,60,19,43,58,93,201,159,177,66,4,101,213,134,58,63,232,10,129,194,26,16,14,39,1,199,64,38,207,167,102,62,249,209,90,219,29,63,235,3,207,243,215,129,51,14,177,43,210,188,19,203,43,89,41,183,207,201,206,57,209,114,42,29,215,90,67,207,133,148,123,216,55,127,62,210,12,6,34,185,42,9,159,21,28,224,179,183,155,72,42,227,41,14,163,168,229,29,214,241,208,190,255,33,24,253,254,195,197,22,249,202,18,28,19,252,43,41,35,216,25,255,10,235,229,11,7,46,251,218,205,53,232,55,90,239,193,127,255,233,227,60,209,236,224,12,24,5,241,223,173,10,46,226,230,37,255,254,53,40,192,9,218,45,208,33,221,198,25,43,210,135,159,38,47,13,11,226,1,64,127,35,26,29,15,10,248,237,7,0,14,196,252,17,146,82,85,167,176,243,27,142,184,196,212,233,19,12,254,224,59,217,251,22,175,87,28,226,95,38,254,248,92,206,65,224,156,22,1,191,93,47,243,27,222,50,208,12,38,38,26,209,39,26,65,183,175,147,253,30,37,204,49,170,250,249,18,35,36,129,44,224,26,195,1,248,225,217,51,2,33,0,243,244,77,219,28,224,186,12,179,222,25,222,228,7,237,203,255,25,26,31,27,207,2,226,220,245,215,36,251,2,32,19,175,229,14,191,249,54,41,200,204,25,6,245,15,218,20,21,0,50,56,212,34,2,129,246,24,123,216,27,226,180,47,254,190,236,222,219,3,2,7,222,31,36,230,81,43,236,56,212,178,244,183,194,28,226,243,217,219,242,54,15,213,194,167,86,34,250,248,44,116,248,57,179,179,3,19,209,190,44,240,49,2,75,2,125,129,37,83,182,188,4,223,159,89,154,8,238,8,8,247,247,48,81,254,69,229,214,168,245,221,0,247,20,41,23,188,213,233,242,18,245,22,213,201,49,39,95,181,16,203,56,222,17,250,196,36,109,242,212,208,16,86,200,54,4,40,63,180,31,206,250,241,173,49,191,59,17,182,151,227,52,100,232,69,46,47,199,53,183,129,27,1,134,0,204,29,111,214,207,202,12,195,227,163,199,250,45,26,129,79,73,197,222,249,194,220,10,124,48,61,214,45,20,229,172,172,187,209,237,16,30,79,181,10,76,20,232,30,124,251,214,210,26,138,238,105,222,119,251,223,108,23,199,226,41,195,151,48,199,181,250,83,242,162,252,227,48,107,235,31,10,190,184,54,99,69,23,180,230,223,231,213,59,45,96,60,20,46,222,41,197,26,245,11,55,215,127,55,92,24,52,41,61,185,250,252,247,190,230,215,25,212,244,205,88,9,198,99,27,44,101,20,26,199,164,58,25,201,37,185,51,160,186,220,251,205,252,168,222,56,190,183,48,10,2,50,12,31,241,10,221,253,249,56,251,142,26,246,240,185,12,129,57,207,55,91,185,235,189,10,101,37,215,78,223,88,47,221,11,217,186,18,4,234,88,197,246,36,232,233,7,194,48,207,20,249,237,249,11,16,242,5,196,232,219,7,208,28,162,239,183,236,199,254,11,49,157,43,255,29,243,253,12,20,174,129,86,32,16,59,114,235,27,52,249,64,209,37,245,238,251,30,61,228,228,53,248,161,66,56,210,215,208,188,26,17,20,38,214,176,227,217,11,224,166,195,65,10,160,192,203,230,196,206,237,189,241,18,232,1,24,50,45,223,225,27,59,203,28,90,5,131,177,61,129,221,227,228,30,56,33,9,240,217,198,31,17,239,209,3,38,20,70,6,196,188,200,208,18,138,24,216,45,69,64,222,224,22,192,241,19,45,184,173,207,48,240,0,41,188,247,41,13,9,169,205,70,204,215,243,11,240,115,185,45,3,79,1,39,201,182,5,153,201,244,39,22,188,37,23,41,129,15,219,27,245,35,28,24,89,217,48,238,199,35,9,232,205,21,247,39,233,198,167,89,252,76,27,247,0,63,246,252,19,0,250,226,221,1,23,129,178,22,224,237,196,85,222,201,56,19,207,207,243,61,42,180,162,40,244,252,10,200,13,191,249,243,255,178,18,90,247,224,113,51,66,61,82,33,205,199,223,195,238,255,26,31,221,33,129,113,51,228,218,45,69,189,22,159,155,43,239,63,211,58,205,235,30,163,44,131,20,101,33,214,42,27,39,254,196,14,63,209,28,24,108,5,2,15,92,26,154,227,233,37,9,199,129,181,219,50,177,1,226,4,59,251,224,226,53,221,4,164,197,168,42,245,245,41,219,51,58,214,14,255,34,10,192,37,36,33,32,23,18,132,42,232,241,38,244,7,188,40,196,42,159,41,32,250,112,61,34,32,75,49,129,201,62,12,248,230,203,26,250,249,52,202,188,219,130,33,15,240,209,222,231,5,23,205,244,59,218,155,226,76,171,183,56,255,232,144,68,35,75,30,19,175,234,106,177,63,147,198,56,129,213,44,20,73,161,27,240,231,3,202,231,6,189,51,247,230,76,202,208,50,174,46,39,194,17,31,51,0,127,42,212,222,213,201,203,169,85,210,42,21,1,215,70,192,210,44,55,33,200,223,141,182,75,190,221,251,30,184,194,197,232,212,236,191,25,221,65,45,38,246,71,232,135,159,229,232,239,26,81,210,80,67,36,247,247,193,223,242,223,219,192,195,98,239,234,253,6,55,73,242,129,243,68,61,220,71,148,12,245,235,242,21,229,24,187,239,184,13,20,202,198,14,177,36,156,160,242,143,28,16,241,110,73,223,197,226,203,231,23,9,71,18,114,7,23,198,41,33,79,19,253,37,238,12,54,155,136,223,229,231,216,66,98,177,161,12,71,85,221,22,140,45,38,68,32,225,21,67,69,127,221,253,37,19,46,235,59,107,146,72,6,243,188,172,178,80,183,195,16,248,178,220,219,166,143,53,254,182,205,193,244,247,90,200,1,223,224,30,58,58,129,17,210,21,223,69,222,206,35,104,19,32,24,9,60,32,230,38,226,209,33,219,1,85,50,247,218,65,208,168,66,49,78,13,214,55,5,91,247,91,208,27,194,249,157,175,17,213,243,226,65,19,225,3,243,218,186,23,224,207,50,2,12,197,183,14,207,234,220,247,246,40,66,245,249,242,30,228,127,27,5,213,224,13,252,62,86,70,179,220,213,15,225,2,224,4,129,41,247,166,55,246,213,216,230,43,234,15,62,252,11,26,33,195,137,227,40,224,28,15,186,184,193,218,54,38,58,21,160,46,225,38,28,242,189,186,36,39,64,9,12,221,235,53,187,82,228,39,211,77,103,196,63,248,242,250,48,129,55,46,70,211,211,253,69,201,17,44,217,14,228,229,119,177,222,61,191,64,195,198,55,147,20,188,203,43,61,215,36,195,31,32,62,55,32,211,9,195,213,241,101,172,148,174,204,23,171,212,15,33,9,232,180,192,225,161,183,8,6,33,64,131,91,35,231,191,68,127,85,247,248,181,1,16,214,234,1,180,18,58,64,202,233,72,30,179,201,61,152,188,79,242,213,17,235,188,167,200,249,24,232,201,46,76,190,122,47,2,233,84,192,183,174,78,24,8,34,27,114,247,183,25,229,72,214,165,126,47,129,254,232,145,32,70,18,209,95,47,75,227,3,54,193,219,219,10,67,55,218,226,234,0,248,203,238,45,202,16,35,43,68,217,4,249,14,249,231,36,33,230,220,45,227,22,176,235,21,234,214,4,9,14,187,12,11,226,249,51,73,33,59,254,127,16,23,242,217,56,255,185,198,32,35,7,31,48,53,197,49,210,148,33,194,241,46,248,209,49,50,201,224,1,186,222,224,218,235,11,233,91,33,182,231,122,51,244,4,210,129,175,169,237,199,13,20,191,71,45,229,248,29,73,7,1,204,85,8,29,27,91,222,36,4,86,184,254,48,25,227,198,246,40,247,211,155,8,16,197,207,247,109,227,11,30,250,255,255,4,0,0,0,28,0,0,0,208,120,137,191,212,233,173,63,220,77,235,190,176,212,212,62,157,28,131,63,141,215,126,63,112,77,53,63,70,250,255,255,4,0,0,0,128,3,0,0,231,60,12,191,0,198,6,190,189,88,3,61,229,183,82,190,19,195,177,190,205,19,52,62,51,132,75,190,17,71,75,190,97,153,34,188,198,203,48,62,23,196,49,190,121,88,175,62,61,96,182,62,211,174,139,190,223,128,172,62,117,154,96,62,153,153,193,60,206,253,45,190,241,35,92,189,109,244,91,62,124,59,83,62,61,74,166,190,205,214,126,188,37,58,145,62,92,125,148,190,183,175,127,61,190,179,140,62,19,62,134,62,245,238,162,62,30,48,154,61,179,87,158,189,88,59,159,62,126,21,28,61,167,251,31,190,91,79,238,187,102,140,14,62,67,154,224,190,70,200,141,190,243,221,199,62,82,68,185,190,178,225,154,62,206,234,52,189,116,46,178,62,155,148,222,190,134,205,18,190,44,103,63,190,72,36,151,190,32,111,18,62,121,12,145,190,111,25,163,62,154,231,208,62,39,153,216,62,199,87,15,62,37,250,142,190,140,229,74,190,0,215,17,62,109,44,146,62,83,122,231,190,170,103,109,190,165,42,127,62,139,0,152,190,55,202,200,190,157,25,251,61,138,182,105,62,145,141,216,62,59,47,19,190,33,83,246,189,26,222,141,61,39,192,247,62,179,134,173,190,184,29,110,62,187,76,106,62,30,186,133,190,228,88,236,61,249,59,137,62,166,22,158,62,240,41,132,62,171,72,209,189,49,145,145,61,127,17,180,190,224,150,15,62,204,61,107,190,47,186,218,60,140,195,97,190,135,243,145,62,159,202,211,190,204,211,197,190,230,191,202,190,43,98,99,190,160,179,121,188,144,208,11,62,113,248,178,62,43,151,29,62,176,194,127,61,135,235,16,190,131,40,29,62,71,103,180,60,68,67,141,62,34,65,208,188,163,143,154,190,207,221,139,62,104,201,146,190,55,82,173,189,34,29,232,190,176,119,253,187,234,138,133,190,206,240,229,190,73,202,240,188,30,72,182,190,51,24,33,62,121,250,148,190,18,87,199,190,97,173,57,190,232,95,247,61,193,164,190,62,88,123,153,189,124,75,53,190,84,223,102,189,118,15,193,61,220,143,171,62,201,10,190,62,196,168,0,63,38,24,0,61,247,184,100,62,149,108,44,189,57,235,182,62,133,144,49,61,119,192,168,62,196,127,71,62,142,159,147,190,233,187,174,190,45,242,167,190,32,66,63,190,22,244,189,62,21,106,175,190,221,255,119,190,102,154,158,189,152,44,144,189,249,205,160,62,129,167,135,62,154,111,1,61,3,223,80,62,234,148,152,190,90,138,10,190,103,214,73,190,1,7,113,62,174,195,100,190,148,23,29,62,228,134,3,190,65,154,171,190,164,165,244,62,76,234,181,190,50,21,8,62,56,241,117,189,145,65,87,188,227,32,106,190,144,153,95,62,26,26,204,190,72,6,95,189,185,34,232,189,27,215,1,190,205,125,160,190,244,70,199,62,112,61,194,190,22,128,48,62,212,15,58,62,47,244,55,190,201,227,148,62,155,163,214,61,36,13,159,62,172,201,25,187,103,189,165,190,218,189,14,190,129,239,209,61,55,107,66,62,64,221,0,190,54,45,74,62,152,144,88,62,245,100,193,62,99,220,198,190,22,71,158,190,227,141,153,62,210,155,111,62,129,33,216,190,64,229,186,190,63,64,220,190,190,7,133,62,31,137,221,190,219,9,27,62,116,90,134,190,114,4,218,190,149,133,116,190,75,65,205,190,117,246,36,190,126,118,189,62,227,47,205,62,150,101,44,62,41,214,137,62,72,226,251,61,98,113,221,190,16,11,49,60,24,3,54,62,76,250,112,61,201,36,58,190,49,252,53,62,201,51,84,62,172,50,134,190,158,128,118,190,167,136,98,190,156,150,88,62,99,189,216,61,198,12,81,187,14,243,109,190,45,183,180,190,235,127,220,190,219,252,233,190,224,22,141,62,31,175,78,62,62,53,104,62,109,118,191,61,91,47,34,189,94,176,173,190,186,36,28,62,96,105,86,190,210,253,255,255,4,0,0,0,128,0,0,0,17,254,46,63,4,78,98,190,240,126,77,63,113,43,143,191,9,248,149,191,44,63,182,63,102,113,197,62,154,98,222,188,211,251,77,63,43,156,56,63,238,104,103,63,1,51,111,190,208,197,55,63,191,116,132,191,19,142,128,63,81,85,102,63,59,192,236,63,207,250,111,63,150,218,201,62,157,147,14,63,200,119,164,188,152,228,121,63,105,167,169,63,135,209,19,63,129,86,66,63,21,37,163,190,113,40,135,63,93,160,24,191,158,4,136,63,1,228,37,191,21,202,62,190,198,59,188,62,94,254,255,255,4,0,0,0,0,1,0,0,14,181,166,60,93,57,161,59,243,253,46,61,28,225,32,189,202,19,29,189,255,95,137,60,195,139,76,188,161,40,230,60,59,102,66,60,173,243,197,188,130,211,133,188,90,118,22,188,139,169,248,57,195,221,55,188,141,41,52,60,152,46,210,60,12,94,40,60,95,123,42,60,35,40,161,60,3,218,193,188,52,162,171,187,171,127,135,188,90,29,196,188,121,221,181,60,170,176,10,188,147,56,138,58,147,111,137,188,206,174,235,60,196,85,209,187,212,99,6,189,152,107,184,59,79,26,206,188,192,243,72,188,115,228,95,59,64,230,107,53,11,99,63,189,52,11,141,60,89,38,60,189,182,95,167,188,88,99,35,59,175,148,160,189,56,62,5,184,141,32,164,189,18,127,57,61,202,205,18,60,185,83,193,60,128,15,127,61,196,176,69,187,105,142,191,187,159,145,243,188,150,76,210,187,26,39,209,60,95,104,64,189,40,252,23,189,167,234,122,59,93,19,61,59,242,158,103,189,152,36,14,61,152,170,61,188,58,162,125,187,229,217,146,59,139,108,28,60,21,65,8,188,80,92,22,61,200,244,255,255,204,244,255,255,15,0,0,0,77,76,73,82,32,67,111,110,118,101,114,116,101,100,46,0,1,0,0,0,20,0,0,0,0,0,14,0,24,0,20,0,16,0,12,0,8,0,4,0,14,0,0,0,20,0,0,0,28,0,0,0,40,1,0,0,44,1,0,0,48,1,0,0,4,0,0,0,109,97,105,110,0,0,0,0,4,0,0,0,204,0,0,0,132,0,0,0,80,0,0,0,20,0,0,0,0,0,14,0,26,0,20,0,16,0,12,0,11,0,4,0,14,0,0,0,28,0,0,0,0,0,0,9,28,0,0,0,32,0,0,0,1,0,0,0,0,0,6,0,8,0,4,0,6,0,0,0,0,0,128,63,1,0,0,0,10,0,0,0,1,0,0,0,9,0,0,0,154,255,255,255,16,0,0,0,0,0,0,8,12,0,0,0,16,0,0,0,144,245,255,255,1,0,0,0,9,0,0,0,3,0,0,0,8,0,0,0,3,0,0,0,4,0,0,0,202,255,255,255,16,0,0,0,0,0,0,8,16,0,0,0,20,0,0,0,188,255,255,255,0,0,1,1,1,0,0,0,8,0,0,0,3,0,0,0,7,0,0,0,5,0,0,0,2,0,0,0,0,0,14,0,20,0,0,0,16,0,12,0,11,0,4,0,14,0,0,0,28,0,0,0,0,0,0,8,28,0,0,0,32,0,0,0,12,0,8,0,7,0,0,0,0,0,6,0,12,0,0,0,0,0,1,1,1,0,0,0,7,0,0,0,3,0,0,0,0,0,0,0,6,0,0,0,1,0,0,0,1,0,0,0,10,0,0,0,1,0,0,0,0,0,0,0,11,0,0,0,148,9,0,0,64,9,0,0,236,8,0,0,172,8,0,0,112,8,0,0,140,6,0,0,12,3,0,0,104,2,0,0,84,1,0,0,96,0,0,0,4,0,0,0,174,246,255,255,0,0,0,1,20,0,0,0,28,0,0,0,28,0,0,0,11,0,0,0,52,0,0,0,2,0,0,0,255,255,255,255,7,0,0,0,152,246,255,255,27,0,0,0,83,116,97,116,101,102,117,108,80,97,114,116,105,116,105,111,110,101,100,67,97,108,108,95,49,58,48,0,2,0,0,0,1,0,0,0,7,0,0,0,6,247,255,255,0,0,0,1,20,0,0,0,28,0,0,0,28,0,0,0,10,0,0,0,204,0,0,0,2,0,0,0,255,255,255,255,7,0,0,0,240,246,255,255,178,0,0,0,115,101,113,117,101,110,116,105,97,108,95,57,95,49,47,98,97,116,99,104,95,110,111,114,109,97,108,105,122,97,116,105,111,110,95,49,57,95,49,47,98,97,116,99,104,110,111,114,109,47,109,117,108,95,49,59,115,101,113,117,101,110,116,105,97,108,95,57,95,49,47,98,97,116,99,104,95,110,111,114,109,97,108,105,122,97,116,105,111,110,95,49,57,95,49,47,98,97,116,99,104,110,111,114,109,47,97,100,100,95,49,59,115,101,113,117,101,110,116,105,97,108,95,57,95,49,47,100,101,110,115,101,95,50,57,95,49,47,77,97,116,77,117,108,59,115,101,113,117,101,110,116,105,97,108,95,57,95,49,47,100,101,110,115,101,95,50,57,95,49,47,66,105,97,115,65,100,100,0,0,2,0,0,0,1,0,0,0,7,0,0,0,246,247,255,255,0,0,0,1,20,0,0,0,28,0,0,0,28,0,0,0,9,0,0,0,236,0,0,0,2,0,0,0,255,255,255,255,32,0,0,0,224,247,255,255,209,0,0,0,115,101,113,117,101,110,116,105,97,108,95,57,95,49,47,98,97,116,99,104,95,110,111,114,109,97,108,105,122,97,116,105,111,110,95,49,56,95,49,47,98,97,116,99,104,110,111,114,109,47,109,117,108,95,49,59,115,101,113,117,101,110,116,105,97,108,95,57,95,49,47,98,97,116,99,104,95,110,111,114,109,97,108,105,122,97,116,105,111,110,95,49,56,95,49,47,98,97,116,99,104,110,111,114,109,47,97,100,100,95,49,59,115,101,113,117,101,110,116,105,97,108,95,57,95,49,47,100,101,110,115,101,95,50,56,95,49,47,77,97,116,77,117,108,59,115,101,113,117,101,110,116,105,97,108,95,57,95,49,47,100,101,110,115,101,95,50,56,95,49,47,82,101,108,117,59,115,101,113,117,101,110,116,105,97,108,95,57,95,49,47,100,101,110,115,101,95,50,56,95,49,47,66,105,97,115,65,100,100,0,0,0,2,0,0,0,1,0,0,0,32,0,0,0,6,249,255,255,0,0,0,1,20,0,0,0,28,0,0,0,28,0,0,0,8,0,0,0,124,0,0,0,2,0,0,0,255,255,255,255,64,0,0,0,240,248,255,255,97,0,0,0,115,101,113,117,101,110,116,105,97,108,95,57,95,49,47,100,101,110,115,101,95,50,55,95,49,47,77,97,116,77,117,108,59,115,101,113,117,101,110,116,105,97,108,95,57,95,49,47,100,101,110,115,101,95,50,55,95,49,47,82,101,108,117,59,115,101,113,117,101,110,116,105,97,108,95,57,95,49,47,100,101,110,115,101,95,50,55,95,49,47,66,105,97,115,65,100,100,0,0,0,2,0,0,0,1,0,0,0,64,0,0,0,154,252,255,255,0,0,0,1,20,0,0,0,36,3,0,0,7,0,0,0,0,0,0,9,64,3,0,0,132,252,255,255,8,0,0,0,8,2,0,0,64,0,0,0,0,0,0,0,0,0,0,0,0,0,0,0,0,0,0,0,0,0,0,0,0,0,0,0,0,0,0,0,0,0,0,0,0,0,0,0,0,0,0,0,0,0,0,0,0,0,0,0,0,0,0,0,0,0,0,0,0,0,0,0,0,0,0,0,0,0,0,0,0,0,0,0,0,0,0,0,0,0,0,0,0,0,0,0,0,0,0,0,0,0,0,0,0,0,0,0,0,0,0,0,0,0,0,0,0,0,0,0,0,0,0,0,0,0,0,0,0,0,0,0,0,0,0,0,0,0,0,0,0,0,0,0,0,0,0,0,0,0,0,0,0,0,0,0,0,0,0,0,0,0,0,0,0,0,0,0,0,0,0,0,0,0,0,0,0,0,0,0,0,0,0,0,0,0,0,0,0,0,0,0,0,0,0,0,0,0,0,0,0,0,0,0,0,0,0,0,0,0,0,0,0,0,0,0,0,0,0,0,0,0,0,0,0,0,0,0,0,0,0,0,0,0,0,0,0,0,0,0,0,0,0,0,0,0,0,0,0,0,0,0,0,0,0,0,0,0,0,0,0,0,0,0,0,0,0,0,0,0,0,0,0,0,0,0,0,0,0,0,0,0,0,0,0,0,0,0,0,0,0,0,0,0,0,0,0,0,0,0,0,0,0,0,0,0,0,0,0,0,0,0,0,0,0,0,0,0,0,0,0,0,0,0,0,0,0,0,0,0,0,0,0,0,0,0,0,0,0,0,0,0,0,0,0,0,0,0,0,0,0,0,0,0,0,0,0,0,0,0,0,0,0,0,0,0,0,0,0,0,0,0,0,0,0,0,0,0,0,0,0,0,0,0,0,0,0,0,0,0,0,0,0,0,0,0,0,0,0,0,0,0,0,0,0,0,0,0,0,0,0,0,0,0,0,0,0,0,0,0,0,0,0,0,0,0,0,0,0,0,0,0,0,0,0,0,0,0,0,0,0,0,0,0,0,0,0,0,0,0,0,0,0,0,0,0,0,0,0,0,0,0,0,0,0,0,0,0,0,0,0,0,0,0,0,0,0,0,0,0,0,0,0,0,0,0,0,0,0,0,0,0,0,0,0,0,0,0,0,0,0,0,0,0,0,0,0,0,0,0,0,0,0,0,0,0,0,0,0,0,0,0,0,0,64,0,0,0,4,67,210,58,139,130,224,58,16,69,237,58,93,183,190,58,213,76,217,58,144,48,233,58,47,53,209,58,26,26,197,58,194,209,200,58,122,121,193,58,190,114,238,58,45,217,220,58,160,51,223,58,115,28,235,58,184,170,236,58,45,22,246,58,91,3,239,58,73,151,212,58,97,42,231,58,73,162,0,59,116,229,227,58,114,98,211,58,28,187,216,58,160,219,9,59,214,102,229,58,206,154,214,58,121,129,223,58,196,126,247,58,115,241,187,58,220,110,207,58,41,4,192,58,19,193,226,58,148,45,190,58,227,93,229,58,200,188,207,58,103,171,4,59,5,246,226,58,150,215,240,58,161,176,226,58,225,18,224,58,220,8,213,58,111,186,7,59,111,253,221,58,225,182,216,58,254,24,11,59,109,154,230,58,143,186,254,58,146,98,249,58,111,238,199,58,139,220,201,58,245,17,201,58,1,16,204,58,237,34,217,58,179,199,225,58,188,134,233,58,26,43,205,58,141,215,212,58,134,91,242,58,72,240,254,58,8,2,224,58,61,214,194,58,135,43,203,58,229,98,253,58,180,194,186,58,32,0,0,0,115,101,113,117,101,110,116,105,97,108,95,57,95,49,47,100,101,110,115,101,95,50,55,95,49,47,77,97,116,77,117,108,0,0,0,0,2,0,0,0,64,0,0,0,130,0,0,0,0,0,22,0,28,0,24,0,23,0,16,0,12,0,8,0,0,0,0,0,0,0,7,0,22,0,0,0,0,0,0,1,32,0,0,0,176,1,0,0,6,0,0,0,0,0,0,9,188,1,0,0,12,0,12,0,0,0,0,0,8,0,4,0,12,0,0,0,8,0,0,0,8,1,0,0,32,0,0,0,0,0,0,0,0,0,0,0,0,0,0,0,0,0,0,0,0,0,0,0,0,0,0,0,0,0,0,0,0,0,0,0,0,0,0,0,0,0,0,0,0,0,0,0,0,0,0,0,0,0,0,0,0,0,0,0,0,0,0,0,0,0,0,0,0,0,0,0,0,0,0,0,0,0,0,0,0,0,0,0,0,0,0,0,0,0,0,0,0,0,0,0,0,0,0,0,0,0,0,0,0,0,0,0,0,0,0,0,0,0,0,0,0,0,0,0,0,0,0,0,0,0,0,0,0,0,0,0,0,0,0,0,0,0,0,0,0,0,0,0,0,0,0,0,0,0,0,0,0,0,0,0,0,0,0,0,0,0,0,0,0,0,0,0,0,0,0,0,0,0,0,0,0,0,0,0,0,0,0,0,0,0,0,0,0,0,0,0,0,0,0,0,0,0,0,0,0,0,0,0,0,0,0,0,0,0,0,0,0,0,0,0,0,0,0,0,0,0,0,0,0,0,0,0,0,0,0,0,0,0,0,0,0,0,0,0,0,0,0,0,0,0,0,0,0,0,0,0,0,0,0,0,0,0,0,0,32,0,0,0,209,150,169,59,4,185,181,59,90,230,175,59,191,123,173,59,103,154,153,59,38,217,149,59,36,118,239,59,120,71,162,59,134,123,198,59,104,203,217,59,25,85,150,59,58,245,158,59,123,153,156,59,216,18,169,59,172,220,176,59,221,7,196,59,126,8,212,59,183,196,163,59,238,212,168,59,24,197,170,59,213,31,196,59,15,243,183,59,71,78,176,59,232,87,170,59,161,168,154,59,138,156,174,59,156,200,189,59,237,37,176,59,163,134,152,59,146,226,168,59,140,90,223,59,93,127,189,59,17,0,0,0,116,102,108,46,112,115,101,117,100,111,95,113,99,111,110,115,116,0,0,0,2,0,0,0,32,0,0,0,64,0,0,0,82,255,255,255,0,0,0,1,16,0,0,0,16,0,0,0,5,0,0,0,28,0,0,0,220,254,255,255,15,0,0,0,97,114,105,116,104,46,99,111,110,115,116,97,110,116,51,0,1,0,0,0,7,0,0,0,138,255,255,255,0,0,0,1,16,0,0,0,16,0,0,0,4,0,0,0,28,0,0,0,20,255,255,255,15,0,0,0,97,114,105,116,104,46,99,111,110,115,116,97,110,116,50,0,2,0,0,0,7,0,0,0,32,0,0,0,198,255,255,255,0,0,0,1,16,0,0,0,16,0,0,0,3,0,0,0,28,0,0,0,80,255,255,255,15,0,0,0,97,114,105,116,104,46,99,111,110,115,116,97,110,116,49,0,1,0,0,0,32,0,0,0,0,0,22,0,24,0,20,0,0,0,16,0,12,0,8,0,0,0,0,0,0,0,7,0,22,0,0,0,0,0,0,1,16,0,0,0,16,0,0,0,2,0,0,0,28,0,0,0,160,255,255,255,14,0,0,0,97,114,105,116,104,46,99,111,110,115,116,97,110,116,0,0,1,0,0,0,64,0,0,0,0,0,22,0,28,0,24,0,0,0,20,0,16,0,12,0,0,0,0,0,8,0,7,0,22,0,0,0,0,0,0,1,20,0,0,0,32,0,0,0,32,0,0,0,1,0,0,0,64,0,0,0,2,0,0,0,255,255,255,255,130,0,0,0,4,0,4,0,4,0,0,0,33,0,0,0,115,101,114,118,105,110,103,95,100,101,102,97,117,108,116,95,107,101,114,97,115,95,116,101,110,115,111,114,95,55,50,58,48,0,0,0,2,0,0,0,1,0,0,0,130,0,0,0,2,0,0,0,44,0,0,0,16,0,0,0,12,0,12,0,11,0,0,0,0,0,4,0,12,0,0,0,25,0,0,0,0,0,0,25,12,0,16,0,15,0,0,0,8,0,4,0,12,0,0,0,9,0,0,0,12,0,0,0,0,0,0,9};
const unsigned int material_classifier_tflite_quant_len = 15240;