const unsigned char material_classifier_tflite[] = {28,0,0,0,84,70,76,51,20,0,32,0,28,0,24,0,20,0,16,0,12,0,0,0,8,0,4,0,20,0,0,0,28,0,0,0,152,0,0,0,240,0,0,0,44,169,0,0,60,169,0,0,184,175,0,0,3,0,0,0,1,0,0,0,16,0,0,0,0,0,10,0,16,0,12,0,8,0,4,0,10,0,0,0,12,0,0,0,28,0,0,0,60,0,0,0,15,0,0,0,115,101,114,118,105,110,103,95,100,101,102,97,117,108,116,0,1,0,0,0,4,0,0,0,144,255,255,255,10,0,0,0,4,0,0,0,8,0,0,0,111,117,116,112,117,116,95,48,0,0,0,0,1,0,0,0,4,0,0,0,186,86,255,255,4,0,0,0,15,0,0,0,107,101,114,97,115,95,116,101,110,115,111,114,95,51,50,0,2,0,0,0,52,0,0,0,4,0,0,0,220,255,255,255,13,0,0,0,4,0,0,0,19,0,0,0,67,79,78,86,69,82,83,73,79,78,95,77,69,84,65,68,65,84,65,0,8,0,12,0,8,0,4,0,8,0,0,0,12,0,0,0,4,0,0,0,19,0,0,0,109,105,110,95,114,117,110,116,105,109,101,95,118,101,114,115,105,111,110,0,14,0,0,0,56,168,0,0,48,168,0,0,160,164,0,0,116,164,0,0,100,132,0,0,212,131,0,0,196,130,0,0,180,0,0,0,172,0,0,0,164,0,0,0,156,0,0,0,148,0,0,0,116,0,0,0,4,0,0,0,110,87,255,255,4,0,0,0,96,0,0,0,16,0,0,0,0,0,0,0,8,0,14,0,8,0,4,0,8,0,0,0,16,0,0,0,36,0,0,0,0,0,6,0,8,0,4,0,6,0,0,0,4,0,0,0,0,0,0,0,12,0,24,0,20,0,16,0,12,0,4,0,12,0,0,0,101,207,134,157,21,203,165,136,2,0,0,0,2,0,0,0,4,0,0,0,6,0,0,0,50,46,49,57,46,48,0,0,218,87,255,255,4,0,0,0,16,0,0,0,49,46,53,46,48,0,0,0,0,0,0,0,0,0,0,0,44,82,255,255,48,82,255,255,52,82,255,255,56,82,255,255,6,88,255,255,4,0,0,0,0,130,0,0,45,211,51,61,117,215,103,61,16,122,140,189,158,176,45,190,138,196,109,60,138,111,34,188,169,144,25,190,183,167,172,189,123,239,43,62,206,93,7,190,169,70,218,61,95,33,170,60,181,134,216,61,93,226,94,188,178,165,23,190,71,79,226,189,240,177,102,190,233,86,14,188,198,172,11,61,85,112,46,62,158,213,77,189,235,77,11,62,121,137,236,61,175,227,100,60,8,70,192,189,41,133,119,189,35,224,26,61,200,181,65,188,145,13,12,62,132,255,139,189,249,15,23,61,200,111,23,62,79,14,118,61,66,128,34,190,14,211,39,60,132,242,64,190,230,2,51,188,178,143,0,190,191,172,191,189,131,133,16,190,80,180,3,62,68,165,21,190,62,72,15,62,159,163,234,61,148,182,228,60,44,166,3,62,174,44,7,189,228,248,116,188,223,42,24,190,187,253,237,188,144,184,35,61,15,0,60,190,3,6,86,61,21,102,78,190,189,103,28,187,243,63,201,189,52,140,188,187,153,2,72,59,34,92,114,61,1,107,16,189,182,113,249,189,194,42,182,189,245,200,95,190,121,199,1,61,128,24,71,190,250,118,108,60,16,222,31,189,116,246,39,190,55,36,74,188,131,16,184,189,44,13,136,61,211,96,12,61,54,3,245,61,20,76,179,187,145,249,48,61,96,250,36,62,84,186,118,59,235,111,200,189,189,203,12,190,93,134,254,60,188,210,97,61,146,78,129,187,72,161,186,189,203,16,27,190,211,106,15,62,6,202,214,189,106,251,158,189,172,168,29,190,64,209,11,61,39,158,0,62,120,153,89,190,9,172,159,61,249,62,40,190,35,77,71,188,93,176,57,190,171,234,211,189,61,31,247,189,120,147,171,189,218,130,173,61,124,212,239,61,42,155,210,61,229,22,129,189,234,216,235,61,71,239,7,190,44,59,53,62,163,149,6,61,111,193,2,62,11,41,141,188,212,49,84,62,142,68,248,61,73,143,173,61,209,69,3,190,109,18,90,61,112,144,61,189,68,133,204,189,108,250,17,62,96,87,252,61,20,224,25,62,56,227,166,189,172,150,26,62,211,69,68,61,29,235,215,60,195,64,114,61,130,12,178,189,97,3,187,61,145,138,241,61,42,255,20,190,153,105,254,60,198,77,40,189,109,8,167,61,115,240,209,189,52,121,9,190,26,99,17,61,167,67,172,61,124,250,16,190,103,40,131,61,245,19,172,61,231,121,121,189,46,143,15,62,126,216,236,188,41,2,141,61,146,144,236,189,111,114,188,61,229,38,208,188,104,43,175,188,210,67,16,188,174,210,227,189,242,179,189,188,176,140,216,189,198,159,85,189,26,126,154,189,115,111,59,62,165,236,146,61,39,72,73,62,47,55,163,61,95,170,215,188,138,149,113,61,81,123,50,62,217,102,131,60,209,183,107,61,134,176,87,61,241,105,118,61,35,182,191,189,15,168,14,190,182,220,152,189,192,91,11,190,65,112,21,62,25,28,110,189,191,34,201,188,244,202,34,61,133,35,60,62,117,211,128,189,205,207,132,61,0,96,25,62,79,1,2,62,15,203,23,190,64,122,65,62,119,3,178,189,26,247,251,188,173,100,15,189,92,166,142,60,187,59,2,62,143,25,11,190,25,176,230,189,248,8,0,62,224,233,217,61,13,199,190,61,203,11,31,61,7,215,5,189,108,225,106,61,189,140,82,61,4,53,22,62,80,48,197,61,236,207,66,60,82,115,9,62,31,131,73,60,155,170,210,61,128,159,142,189,153,169,1,190,52,71,86,188,71,116,167,189,229,75,200,61,163,31,166,188,75,177,21,189,13,22,209,61,90,16,200,60,198,175,239,189,160,86,53,61,154,74,228,61,196,176,15,190,113,255,226,61,229,72,12,190,88,175,158,61,129,189,14,62,230,167,192,61,215,144,232,189,29,214,235,61,181,106,43,190,252,97,181,189,34,40,50,62,208,174,157,188,170,174,14,62,54,15,152,61,48,162,230,61,29,157,163,189,242,89,34,62,53,138,16,190,149,7,47,61,107,196,6,190,251,135,212,61,229,195,154,61,245,78,2,62,106,81,89,61,254,211,182,189,37,100,94,188,249,150,148,61,96,80,237,61,71,129,191,189,230,48,168,60,143,75,164,61,226,43,158,189,202,206,219,61,44,25,2,62,74,141,84,189,253,116,46,62,203,209,123,189,107,51,248,61,221,139,49,190,209,140,184,61,2,76,245,61,171,252,64,189,164,79,152,60,241,197,45,190,214,0,208,189,66,127,1,62,224,230,19,190,104,16,40,62,200,60,161,61,9,182,224,188,55,93,34,188,120,150,14,190,200,140,137,61,69,243,20,190,167,49,212,61,89,98,26,61,144,221,102,60,110,194,126,58,165,128,6,62,185,106,72,61,100,154,155,61,140,233,232,61,181,253,161,60,254,232,239,189,23,108,62,62,225,32,24,189,13,197,27,190,230,26,175,61,184,27,240,61,188,205,120,61,82,252,22,62,226,11,20,62,237,132,189,61,20,61,244,61,186,121,180,189,149,82,189,61,55,176,244,189,118,162,241,61,182,164,172,60,128,163,20,62,102,253,51,188,200,225,109,61,29,135,213,189,58,67,158,189,61,93,82,60,106,138,185,189,220,126,21,61,242,64,64,62,146,145,80,61,104,28,31,59,157,41,186,189,247,225,85,60,11,43,52,190,191,139,184,60,207,230,40,189,224,230,37,190,221,0,5,190,93,237,3,190,95,165,37,190,232,66,164,61,101,69,5,61,153,90,65,190,93,225,20,62,27,41,43,61,119,128,136,188,2,60,157,61,188,106,9,62,58,187,255,188,97,211,2,62,229,63,222,61,101,102,12,190,116,198,37,60,110,135,11,190,242,140,129,189,151,179,207,61,183,181,102,188,12,185,58,62,188,180,37,62,26,133,78,61,117,199,30,62,84,51,31,189,2,252,102,59,112,194,13,188,28,207,13,189,14,238,53,62,238,63,37,62,24,133,200,189,153,164,83,189,4,201,8,62,146,169,58,61,165,99,218,61,218,9,179,61,92,45,168,61,172,137,137,60,244,229,211,189,139,8,46,189,219,215,146,189,214,235,36,62,112,158,129,189,127,156,38,62,197,246,17,62,137,212,197,188,253,54,244,189,139,12,88,189,26,184,212,61,250,107,77,61,147,175,231,189,220,70,27,62,217,236,4,61,88,139,23,190,219,116,233,61,244,32,35,190,81,184,172,61,222,173,178,61,14,155,140,61,151,80,255,189,207,71,192,189,39,186,254,189,17,245,222,189,54,197,231,189,164,108,6,190,236,137,39,62,133,154,181,61,185,160,73,59,132,119,152,189,126,45,16,190,154,111,33,62,74,138,19,62,190,89,6,189,171,13,220,189,14,174,164,61,245,162,34,62,210,79,37,189,117,202,185,189,89,51,213,189,101,138,168,61,154,118,220,61,234,46,206,189,253,89,162,188,169,8,174,188,182,170,213,189,53,236,191,61,139,0,70,61,119,98,82,189,134,47,167,188,98,184,216,189,184,127,236,188,211,58,15,187,116,115,248,60,48,154,25,189,254,228,65,189,82,10,137,189,217,182,9,62,138,225,164,189,5,113,180,61,20,192,64,189,197,190,146,61,14,165,94,60,2,108,211,61,12,10,99,60,183,113,223,59,178,77,42,61,41,109,119,61,87,44,144,61,79,225,246,189,235,3,13,189,31,243,20,190,142,231,0,62,180,208,92,61,80,133,105,61,57,125,221,60,145,119,201,188,5,178,184,61,57,80,209,61,3,60,88,60,212,134,220,189,60,24,194,61,188,140,69,188,55,147,1,62,242,209,194,61,51,197,147,189,236,139,233,61,226,53,127,189,152,99,4,190,130,193,151,60,68,25,227,61,233,171,18,61,142,254,168,61,4,128,21,61,116,75,27,190,112,39,15,190,42,196,20,62,207,38,186,61,54,88,254,61,134,82,3,60,131,240,119,189,224,5,39,190,62,75,14,61,43,130,238,189,59,205,128,189,108,165,244,188,200,56,136,61,165,185,198,188,129,202,104,188,151,241,42,190,207,124,48,189,16,186,155,188,7,113,229,61,58,119,242,187,241,190,59,190,131,178,28,62,33,51,141,189,64,7,179,61,211,96,201,60,57,103,232,189,84,62,253,189,35,53,188,188,55,83,52,190,158,88,34,190,1,118,245,189,20,130,218,188,190,122,43,58,13,255,245,189,173,88,143,61,25,130,238,61,202,100,68,190,253,244,128,189,251,214,200,61,187,191,140,188,46,62,175,61,101,238,203,189,209,213,6,190,134,0,127,61,58,228,125,60,140,132,187,61,194,176,159,189,21,97,214,189,44,95,151,189,40,187,0,62,248,159,169,61,222,52,153,61,224,213,115,61,75,31,177,189,202,184,196,61,16,193,224,189,206,179,49,190,179,87,39,189,219,104,47,190,98,191,18,59,181,17,221,61,2,214,18,62,120,180,98,188,185,181,13,62,246,189,218,188,199,75,167,61,165,7,51,190,83,104,50,188,209,92,40,62,79,223,18,189,39,224,139,189,239,147,36,61,117,75,185,61,135,253,29,190,136,13,101,61,44,181,16,62,16,181,233,187,185,53,93,189,110,104,218,189,225,133,8,62,189,108,231,189,5,10,128,189,104,149,233,61,115,32,169,189,44,192,231,61,193,201,146,59,65,164,92,189,218,181,139,59,175,1,173,60,154,50,0,62,34,210,98,189,137,54,29,62,161,14,49,189,127,205,7,62,66,158,14,62,202,243,20,62,217,198,188,188,92,208,172,61,83,106,100,59,47,100,165,189,22,213,176,189,46,212,231,60,168,175,82,189,160,159,245,60,207,57,222,189,20,27,0,190,97,75,231,61,216,13,17,61,137,168,83,190,136,73,169,188,49,23,27,190,165,192,226,187,47,213,55,190,27,144,95,190,82,239,42,61,11,215,198,189,115,125,16,190,57,218,21,190,52,115,82,190,115,190,27,190,146,117,21,61,129,238,246,60,191,0,241,189,146,158,149,189,162,25,142,188,236,255,174,61,165,90,76,62,89,15,171,189,200,74,71,61,160,248,214,61,223,166,133,189,191,60,135,189,215,245,209,186,231,72,154,188,252,46,48,62,10,54,10,190,19,84,226,61,121,149,142,189,126,72,57,62,106,132,226,60,31,106,26,62,50,214,189,189,18,245,199,61,185,54,101,61,105,54,43,190,155,5,151,187,247,238,11,187,25,62,32,190,218,217,98,60,230,255,239,189,78,28,253,61,78,253,134,189,16,84,65,190,251,159,109,61,147,175,43,190,86,79,217,61,2,53,252,189,227,0,16,190,54,77,73,190,57,183,123,189,147,128,169,188,130,170,136,189,251,45,230,189,196,42,23,190,100,204,172,61,235,124,188,60,235,30,133,60,6,202,213,60,241,79,92,60,10,212,238,61,73,71,86,189,224,140,117,61,184,233,131,188,5,21,128,61,138,107,163,61,78,184,37,190,103,89,181,61,103,117,8,190,98,191,75,190,68,232,136,60,94,167,15,190,239,58,225,189,50,232,121,61,196,124,115,61,57,184,14,190,36,56,165,189,91,217,230,189,234,88,96,61,106,118,206,189,162,168,33,190,21,172,164,189,117,205,234,61,152,112,215,61,100,25,169,61,223,210,27,190,180,192,1,62,48,200,129,189,130,10,27,189,89,155,26,61,132,219,0,62,235,72,41,190,68,50,2,62,11,77,149,61,30,80,44,61,41,60,149,61,73,180,196,188,211,117,92,189,157,15,220,189,145,48,27,62,190,17,120,61,253,146,39,189,101,242,6,190,117,212,12,62,4,241,11,190,91,7,4,190,220,68,88,189,242,252,7,190,15,86,8,189,97,162,43,62,50,60,105,189,158,171,164,60,110,14,158,61,82,50,61,190,115,228,15,188,127,199,49,190,201,208,160,188,220,41,82,60,115,182,217,188,70,199,53,190,165,160,155,189,108,9,162,61,50,36,246,61,133,191,244,60,53,168,247,61,58,30,27,61,122,7,195,189,249,254,134,61,212,187,193,189,12,130,18,190,91,187,4,62,5,211,35,57,220,14,168,60,160,64,163,61,187,58,119,59,137,197,160,188,232,129,139,61,94,122,35,190,31,93,133,61,111,101,215,61,247,53,194,189,108,187,129,189,183,153,16,62,250,121,19,188,94,15,38,190,52,152,187,189,125,112,69,61,14,42,130,60,41,121,208,189,174,221,102,189,85,13,20,188,13,212,32,190,18,128,206,61,219,49,37,190,51,1,12,190,60,86,88,190,254,140,144,61,150,251,208,61,134,0,79,188,23,42,64,190,160,175,122,60,63,186,240,188,229,244,161,189,21,125,155,61,112,34,118,190,6,208,1,190,71,134,7,62,96,215,226,189,109,234,205,61,78,14,21,190,180,252,129,189,154,106,88,61,203,68,223,61,54,30,28,190,141,142,8,190,101,177,51,189,198,227,8,62,56,76,66,190,205,229,31,190,73,253,95,61,156,184,168,60,96,119,234,61,82,10,186,61,209,5,128,190,21,30,216,61,119,91,101,61,92,51,170,61,199,185,183,61,124,117,61,190,228,88,18,61,247,66,61,189,189,3,89,190,120,103,239,61,147,43,54,60,84,254,45,190,25,90,49,61,165,103,118,59,127,99,119,61,127,44,14,188,94,115,43,190,92,55,75,190,130,27,222,188,241,67,61,189,121,52,39,190,244,220,36,190,7,86,239,60,23,183,48,62,38,142,39,60,152,181,51,62,108,224,34,62,74,48,18,190,46,57,23,61,213,159,252,189,191,245,45,60,134,250,73,190,96,86,199,188,132,88,13,61,230,46,206,189,220,26,156,186,33,91,219,61,209,91,9,189,17,47,46,189,134,102,15,62,236,158,93,187,182,244,25,190,229,210,7,62,4,124,169,60,159,177,78,61,116,125,237,61,129,241,249,188,58,218,3,190,198,246,246,61,68,188,5,62,8,230,160,189,68,169,162,189,190,5,223,60,16,80,46,189,226,254,4,62,144,54,77,61,248,42,209,189,48,99,200,60,143,185,65,187,182,190,175,189,76,88,76,61,3,210,138,189,36,108,173,189,206,222,226,189,204,152,136,61,95,250,32,62,205,113,7,190,227,221,68,190,218,157,58,190,216,148,198,61,136,153,76,190,103,176,249,186,21,246,214,61,126,97,51,189,200,37,15,61,123,18,148,61,13,145,56,61,252,76,116,189,52,26,0,190,245,149,21,190,188,13,229,61,97,170,92,61,230,124,51,190,57,164,227,189,47,161,64,61,13,31,35,189,178,16,49,190,43,177,67,189,229,218,198,189,194,61,208,189,239,186,38,190,89,151,135,61,64,254,22,189,212,92,185,188,166,59,238,61,120,125,204,61,84,35,38,62,22,134,133,189,55,46,137,188,126,67,51,189,70,115,52,62,230,135,142,189,196,184,22,190,34,91,186,61,221,175,191,189,204,62,202,61,147,183,86,61,221,90,57,62,236,195,64,62,145,32,33,189,197,207,25,62,171,112,30,190,134,53,129,60,145,36,30,62,51,146,213,189,244,195,231,188,76,125,17,62,43,220,187,189,19,124,56,59,72,115,136,189,24,5,23,190,220,2,170,60,164,143,17,190,109,186,126,189,178,87,5,190,37,20,221,61,4,61,176,189,91,106,143,61,196,96,244,189,250,245,12,189,82,1,29,62,245,48,216,187,46,201,181,61,41,242,142,61,199,223,241,61,208,79,195,61,126,192,234,61,41,166,55,61,170,161,142,61,89,237,30,62,200,8,16,190,144,78,37,189,49,108,232,61,73,73,95,61,174,0,167,60,1,10,1,190,32,97,206,60,77,99,46,60,233,244,128,189,156,204,61,62,76,14,40,62,211,4,208,189,7,216,242,60,236,173,33,62,176,132,232,61,190,54,218,60,61,191,209,61,100,200,34,188,95,55,1,190,226,152,232,189,128,169,174,189,97,194,81,187,233,13,68,189,30,228,1,61,46,6,231,61,232,76,28,62,187,173,190,61,110,180,251,60,183,3,225,187,14,4,182,60,54,147,110,60,84,122,25,62,91,13,131,189,152,119,4,189,85,139,194,61,232,128,217,189,231,60,191,188,180,59,147,189,180,244,4,62,103,78,91,61,0,126,16,190,187,35,19,190,52,27,249,61,112,182,73,61,208,122,30,61,15,71,196,189,6,33,133,61,145,157,176,61,93,180,171,60,244,252,3,190,9,51,113,189,146,179,225,60,160,141,109,61,89,38,13,62,209,227,21,62,101,27,236,61,154,185,77,188,164,189,183,59,166,95,210,189,44,35,79,187,126,37,42,62,249,56,51,62,240,203,244,189,241,107,130,61,241,91,56,61,103,129,142,189,227,2,28,190,25,104,53,62,10,130,146,60,62,45,192,189,19,192,3,190,112,191,51,62,56,215,37,62,211,150,54,61,200,5,214,61,191,242,93,188,58,15,59,61,58,75,58,61,45,203,24,190,140,166,39,188,18,83,136,61,76,49,147,61,20,231,221,61,125,60,36,61,76,146,105,61,192,38,242,189,136,200,6,62,49,66,92,61,10,238,241,61,114,252,165,187,227,105,42,62,255,34,72,62,44,244,63,62,147,174,211,61,141,254,203,61,121,79,20,189,154,57,107,61,240,247,102,189,66,6,74,189,49,108,98,61,199,249,113,61,62,115,33,190,96,229,205,188,218,96,58,189,227,238,2,61,143,150,69,189,35,44,107,189,213,2,210,188,202,60,17,62,28,224,146,61,204,23,33,188,75,211,43,190,252,66,9,60,38,78,223,189,27,176,160,189,29,116,183,189,88,17,175,61,159,13,222,61,52,182,19,190,124,31,198,189,115,159,20,62,192,52,255,61,17,245,198,60,251,249,164,189,187,73,33,59,117,7,213,189,42,181,224,61,22,139,23,190,22,82,165,61,116,194,90,189,231,120,108,61,98,52,187,189,92,86,114,189,149,123,225,61,7,121,46,190,44,176,176,60,208,128,211,189,114,251,56,190,137,48,20,62,160,172,25,190,114,23,69,61,149,152,149,61,176,225,72,61,224,91,245,189,234,202,222,189,216,144,172,189,114,24,58,188,141,223,10,188,199,47,228,189,235,13,49,61,212,2,81,62,239,56,11,190,30,3,219,189,34,189,116,61,33,83,158,189,153,6,31,189,90,242,106,189,10,179,45,190,174,58,109,189,133,74,33,62,183,131,158,189,167,162,18,190,50,92,237,61,129,163,40,190,113,171,16,190,149,37,133,61,3,117,189,189,196,26,122,189,180,187,110,188,44,11,141,189,255,217,109,189,142,104,245,61,207,53,253,61,78,92,35,190,51,70,54,190,40,84,32,190,54,198,3,62,21,194,77,190,119,243,235,61,3,50,10,189,144,79,192,189,179,229,39,62,215,46,40,62,145,57,211,189,237,80,173,59,245,46,95,189,93,198,214,61,254,77,121,188,250,106,137,61,216,79,227,61,76,185,91,62,84,153,1,61,228,21,47,188,69,81,110,189,212,166,30,62,227,172,111,189,194,154,103,61,52,16,12,189,131,99,254,61,29,62,73,189,195,223,88,61,187,112,118,61,147,195,195,188,204,164,1,62,82,255,237,189,151,222,47,62,51,77,113,189,199,206,70,61,77,62,54,60,158,223,200,189,180,152,203,60,62,40,11,190,209,235,199,61,27,180,219,58,179,170,104,61,213,216,115,60,16,205,15,62,179,227,224,189,91,114,84,61,0,207,88,188,147,61,184,61,186,8,141,61,202,83,137,187,99,199,113,61,224,161,11,190,160,202,221,61,243,44,98,61,132,200,161,186,58,130,226,189,84,156,47,190,206,138,21,62,145,129,9,190,50,234,228,61,134,47,63,189,119,114,186,61,4,135,7,186,130,244,15,187,3,82,182,60,46,117,102,61,218,248,147,188,190,220,37,190,28,231,149,61,3,237,192,61,133,125,202,189,78,154,170,189,16,194,152,189,121,113,15,62,137,92,26,190,146,221,160,189,162,200,166,59,230,97,194,189,139,206,133,60,100,38,59,188,134,144,237,61,120,51,152,189,224,55,22,190,1,69,173,61,87,90,46,189,240,147,156,189,48,131,161,60,104,166,225,61,248,197,139,189,161,246,31,61,128,69,201,188,3,2,68,189,106,18,137,61,40,1,62,189,2,168,49,62,240,235,150,189,166,144,20,190,224,218,130,60,139,124,222,189,179,105,113,61,24,147,183,188,182,65,159,189,88,24,34,62,132,110,113,188,17,45,156,187,21,163,143,189,91,8,4,189,207,236,253,61,76,146,244,189,222,97,233,189,245,138,142,189,31,54,60,62,247,77,101,61,208,23,202,61,214,29,142,189,143,22,249,189,109,19,4,62,217,95,32,62,119,59,11,190,241,217,13,61,62,17,6,61,139,125,184,189,197,67,77,61,205,141,168,189,48,79,30,189,26,143,30,190,125,41,247,189,213,160,167,61,52,75,236,61,175,146,133,61,176,29,4,190,240,254,10,62,23,175,149,189,180,223,249,188,87,182,80,60,137,152,12,189,141,121,223,189,233,163,1,189,60,87,255,189,120,0,106,62,130,17,7,189,91,234,200,61,223,111,16,190,236,207,46,190,229,115,191,60,254,16,228,189,27,120,184,189,24,233,213,61,212,244,131,189,220,240,2,62,193,25,71,62,241,18,32,189,46,178,28,189,10,17,227,60,104,103,73,189,19,135,121,61,175,189,132,188,141,52,11,188,166,70,13,62,48,142,236,188,93,50,250,189,181,58,74,62,238,217,122,188,112,43,185,188,156,32,123,60,123,33,192,60,91,55,80,188,68,68,239,61,160,129,151,189,115,227,166,189,228,35,232,185,205,89,130,60,231,238,251,61,97,16,45,62,242,120,75,62,48,215,111,61,184,81,132,189,160,175,21,62,67,54,90,62,156,81,175,61,151,107,154,60,159,244,209,189,211,254,14,62,93,193,1,62,73,172,178,61,120,243,20,62,197,112,219,189,16,131,4,190,98,251,74,61,45,4,36,189,221,68,185,61,150,79,163,189,52,116,32,62,128,1,137,61,237,3,41,188,216,109,50,190,72,2,245,189,92,129,32,189,129,79,7,62,119,38,217,60,185,44,160,61,50,1,254,61,102,109,225,189,142,166,190,61,253,132,157,188,109,196,218,189,58,194,71,187,110,54,207,61,219,253,244,60,245,249,98,61,205,139,45,62,58,240,88,61,252,232,28,62,183,9,3,62,25,149,50,62,172,151,94,189,235,164,101,59,206,240,237,186,37,170,83,190,216,140,192,58,248,67,74,61,169,112,195,61,91,138,212,59,2,98,48,189,210,80,204,61,47,159,165,189,209,62,12,190,81,63,103,59,236,100,157,60,254,179,159,61,236,29,92,189,73,160,95,61,97,64,197,61,237,33,94,187,57,133,154,189,38,23,114,189,175,213,173,189,245,140,232,188,194,233,190,189,130,99,205,61,131,199,19,190,216,246,191,60,124,236,244,61,240,14,25,190,245,63,205,61,100,96,154,189,160,100,58,61,28,198,53,189,233,170,23,62,224,209,56,189,254,193,20,62,22,34,133,189,174,208,45,62,96,47,220,189,165,18,218,189,19,49,184,61,18,19,131,189,99,128,6,62,198,165,157,61,127,88,20,190,150,121,136,189,247,147,97,61,237,41,178,188,183,55,37,187,96,130,43,62,158,149,149,61,221,185,38,62,69,154,221,189,66,223,62,190,12,217,167,188,255,3,91,189,80,96,191,186,90,253,181,189,107,87,251,189,115,93,225,61,195,225,45,61,168,231,38,62,109,167,182,189,130,64,255,61,54,195,235,61,198,27,29,189,25,8,24,190,39,145,32,190,237,22,151,189,11,79,13,62,11,227,49,62,170,153,57,61,87,94,34,62,149,202,15,189,69,203,86,188,103,128,184,61,52,87,14,61,65,206,14,190,23,106,172,60,46,142,140,61,168,178,10,62,252,45,19,188,112,74,8,62,245,22,90,187,159,171,134,189,118,163,180,59,234,202,186,188,186,74,33,190,137,233,186,60,95,247,146,187,85,150,3,62,106,104,50,60,148,167,239,189,233,76,168,61,70,183,65,61,245,236,2,190,25,166,81,189,235,91,215,60,6,146,32,190,158,220,70,190,28,169,83,188,210,29,121,61,85,183,46,190,53,233,122,190,166,60,142,61,166,245,165,189,244,187,27,190,153,80,134,189,77,199,14,190,69,26,218,188,120,58,28,190,200,144,53,190,218,174,198,188,150,190,30,190,51,218,178,188,150,35,166,61,138,63,6,190,74,65,113,189,176,200,71,190,180,15,66,190,13,85,214,61,92,100,31,190,5,79,60,190,241,93,49,61,87,189,171,61,113,108,146,187,145,170,25,189,234,129,127,61,123,86,187,189,128,61,49,61,246,96,120,189,146,160,30,190,85,69,144,189,157,20,116,61,171,71,157,59,39,216,135,189,137,44,2,190,104,28,26,190,139,102,123,188,224,35,136,189,127,192,138,189,106,178,86,61,248,49,11,190,219,80,183,61,60,40,15,189,186,116,12,62,199,161,52,190,36,237,9,190,75,34,12,190,7,185,82,61,228,189,215,61,31,25,206,61,214,120,69,190,116,207,13,61,25,254,1,188,6,200,212,61,144,223,250,61,187,119,156,61,136,62,38,62,175,229,20,60,223,37,33,189,250,67,32,190,217,213,169,187,149,78,71,190,240,152,134,60,240,211,10,190,87,225,211,189,188,54,244,60,134,131,183,189,44,202,204,61,76,48,22,62,44,130,187,61,153,167,92,61,122,52,160,61,4,232,26,190,147,235,2,190,28,149,158,189,106,127,10,190,198,38,12,61,66,130,107,61,46,111,144,61,126,169,58,62,62,30,78,189,94,90,6,60,190,87,25,190,191,205,32,62,29,73,8,190,199,185,243,189,120,85,131,189,30,38,13,189,254,200,35,60,204,101,242,61,230,235,237,188,187,222,136,61,101,6,223,189,125,90,180,188,66,123,22,190,42,28,41,62,79,21,43,190,34,232,11,62,253,140,20,189,165,19,98,61,124,188,152,187,35,155,147,189,169,115,205,188,250,17,171,61,60,12,206,60,127,60,227,189,106,193,11,62,0,27,27,62,152,219,62,62,235,2,154,61,198,106,37,62,60,42,38,190,90,214,248,60,147,21,32,190,237,111,225,188,10,157,62,189,148,89,1,62,20,26,119,188,19,53,111,187,225,149,20,189,47,33,132,189,59,127,12,62,126,10,44,190,222,85,122,189,235,86,7,62,225,21,199,61,149,75,239,60,142,75,83,187,72,241,2,62,25,135,220,189,83,214,110,61,176,149,194,189,41,132,98,190,23,121,38,189,157,182,51,189,79,248,170,189,8,221,21,189,24,43,213,61,54,10,173,61,69,155,56,190,101,210,27,189,116,5,34,190,107,9,160,61,69,68,33,189,103,46,200,189,143,44,252,60,240,151,50,190,33,95,81,60,43,1,168,189,188,145,201,189,236,41,247,189,207,188,58,190,242,72,176,189,20,3,100,61,218,42,168,189,216,106,164,61,182,162,28,61,156,64,84,188,220,234,58,189,183,28,213,189,65,124,73,190,113,210,235,61,160,222,211,61,241,5,192,61,124,56,172,189,81,226,12,62,127,173,248,189,112,160,22,62,143,164,14,61,71,2,43,62,187,3,41,190,15,169,54,62,239,238,152,61,246,73,186,60,66,128,68,62,69,241,183,189,54,55,170,61,206,223,138,189,164,86,18,62,209,201,181,61,162,86,64,61,45,10,9,190,166,153,23,190,56,211,94,61,123,138,231,189,195,255,14,62,74,17,26,190,120,219,93,61,99,232,22,62,225,57,17,190,163,42,240,189,23,169,186,61,87,210,39,190,77,7,39,59,107,5,68,189,61,233,3,190,215,236,252,61,120,159,168,61,123,73,38,190,168,191,254,189,237,78,137,187,36,53,36,190,113,202,199,189,16,84,199,61,188,14,121,188,89,137,232,61,117,206,9,61,233,15,16,190,144,214,211,189,232,198,48,187,15,228,254,61,218,216,71,61,17,220,239,189,190,165,1,190,186,48,134,61,228,85,194,61,195,150,40,190,248,64,160,189,99,121,41,62,249,157,244,187,118,21,40,62,160,84,195,59,195,93,57,187,24,98,49,62,17,240,23,62,224,75,191,189,218,255,21,190,101,182,13,62,214,56,22,62,127,90,12,60,32,51,25,60,78,184,58,189,224,36,187,189,85,113,16,62,225,38,192,189,211,56,45,62,66,159,234,61,91,113,177,188,187,212,0,62,217,211,32,187,13,97,187,61,66,114,174,61,190,49,11,61,72,35,124,61,231,6,7,190,229,36,39,189,184,12,154,189,139,218,190,189,85,118,239,189,96,12,12,190,223,141,65,190,65,58,110,189,8,128,21,189,110,60,125,61,249,33,136,189,48,204,44,190,130,211,219,189,52,104,168,60,0,18,168,189,249,242,45,61,219,15,202,61,203,234,145,61,220,72,151,188,177,240,134,61,176,208,175,61,210,170,81,190,194,80,7,190,141,80,90,189,195,159,82,190,45,223,244,189,125,156,220,61,241,220,131,189,227,203,30,62,101,137,30,61,55,154,14,190,104,223,11,190,174,95,52,61,63,18,216,61,133,231,230,188,97,23,28,62,138,133,57,61,38,61,211,189,146,214,24,62,16,78,196,189,26,200,188,60,113,103,106,58,196,106,41,189,233,64,234,61,3,164,226,189,77,107,66,190,102,130,177,61,27,150,225,61,255,18,9,190,68,226,17,62,187,206,46,189,48,41,171,60,123,172,14,190,42,157,84,61,242,118,21,190,145,223,33,189,247,156,154,61,45,112,72,188,206,41,13,190,109,49,27,62,31,26,199,61,154,8,106,60,1,150,167,61,56,81,245,61,88,58,112,60,26,8,107,189,239,187,130,61,34,78,58,190,157,101,10,190,44,45,188,189,240,98,25,62,139,226,11,62,41,143,9,61,120,216,7,189,152,167,35,190,109,40,15,190,70,198,0,62,152,0,43,189,218,149,182,60,246,246,162,189,26,232,130,61,33,201,53,190,232,110,113,189,203,15,159,189,84,172,53,61,107,226,205,61,99,125,45,61,224,16,161,61,29,68,242,61,19,211,253,189,192,134,16,188,61,39,138,61,245,22,22,190,128,221,164,189,139,50,250,60,141,98,249,188,20,231,10,190,152,92,23,62,6,9,90,187,218,51,154,189,24,191,34,190,13,153,169,189,228,210,2,60,50,26,3,61,85,183,206,61,162,91,143,61,120,242,15,61,3,219,57,190,170,117,5,61,1,221,234,60,70,34,186,189,113,121,29,189,248,10,198,61,104,133,209,61,17,196,89,189,20,195,155,189,20,138,33,190,97,25,171,189,21,133,101,61,180,32,80,61,102,48,4,62,108,124,204,61,251,31,5,190,113,92,248,189,214,154,151,189,222,200,213,189,192,58,50,62,144,182,44,60,125,246,73,61,19,139,38,62,100,15,14,190,50,5,184,61,210,113,48,62,94,53,5,62,9,254,230,61,193,201,40,190,163,68,91,61,150,80,67,189,46,113,167,61,201,234,238,59,25,204,40,62,55,182,215,189,79,139,184,189,40,233,243,61,115,25,203,189,48,245,29,190,252,129,184,189,57,191,132,60,175,93,8,60,97,58,214,61,183,166,242,61,137,251,31,62,209,111,44,62,14,188,105,62,47,58,95,62,225,101,75,62,184,85,84,189,119,113,130,61,62,73,83,189,159,123,170,189,185,186,253,189,92,4,151,188,247,1,46,62,128,93,239,61,149,77,224,189,63,78,23,62,52,167,180,59,224,3,36,62,175,39,252,61,180,72,183,189,111,134,172,60,20,145,50,62,126,90,231,188,2,246,50,62,118,3,207,187,248,8,193,187,69,72,133,61,157,84,120,61,101,111,21,61,100,183,23,62,166,159,231,61,49,246,195,188,2,96,105,61,237,210,52,60,63,98,140,61,231,222,161,184,200,252,245,61,89,30,10,62,22,124,88,61,39,9,141,61,238,36,165,60,134,160,30,61,185,245,227,189,83,202,201,189,42,87,136,189,20,249,165,189,226,111,93,189,215,223,225,189,220,220,29,190,33,118,19,190,73,222,185,189,232,0,163,188,153,212,3,190,117,149,58,62,48,242,152,188,55,32,50,61,81,203,15,62,207,183,19,190,132,227,64,62,189,234,102,188,186,222,242,189,57,72,46,190,192,20,173,60,153,158,147,60,146,63,203,61,12,161,140,61,134,1,169,188,201,24,57,190,77,73,16,190,79,86,186,61,90,99,173,188,244,29,25,62,186,40,153,189,228,73,190,188,103,150,69,189,169,173,31,62,36,244,214,61,39,106,22,62,96,126,40,62,96,198,57,189,54,206,162,187,88,113,78,61,3,119,211,189,58,252,178,59,63,36,13,62,221,108,3,62,37,66,197,61,169,219,31,62,234,42,135,189,199,252,239,189,206,177,251,188,118,13,166,61,50,156,60,61,182,146,185,61,94,41,75,62,214,229,130,60,58,212,187,61,210,177,1,62,228,180,195,60,119,146,11,62,143,110,41,62,194,124,144,189,196,210,56,62,140,198,218,189,181,199,5,62,171,239,183,189,225,191,171,188,27,213,148,61,100,81,25,190,198,84,164,188,242,160,164,61,196,36,12,190,116,167,18,62,238,150,254,60,181,247,104,60,174,16,155,60,77,173,133,61,67,216,214,189,98,149,217,61,171,101,1,189,92,221,135,61,105,105,146,189,42,203,103,61,38,133,39,62,191,1,168,61,8,181,203,61,77,37,231,189,5,39,36,190,2,113,54,190,155,139,205,60,120,248,238,189,198,149,0,190,16,203,235,61,72,70,0,189,229,16,3,61,231,63,241,189,32,136,208,189,43,150,143,61,37,194,130,61,140,85,195,189,178,142,253,59,160,85,228,61,9,92,15,190,25,186,20,62,73,11,58,62,85,70,202,61,165,141,8,190,9,240,152,61,243,116,252,189,6,238,17,189,118,240,202,61,169,166,226,61,253,221,7,62,2,106,173,188,34,144,100,188,175,40,21,189,88,126,75,189,187,72,6,62,138,146,19,190,148,254,253,61,20,201,68,189,55,62,201,61,225,113,20,60,132,5,209,60,9,177,64,61,74,54,223,61,230,85,246,189,40,89,68,189,178,90,159,61,108,132,244,61,101,252,173,189,77,197,118,61,161,244,94,61,59,152,226,189,240,26,97,58,111,174,143,189,64,3,199,189,214,50,52,189,12,29,102,188,112,213,19,190,172,33,27,189,220,243,224,189,184,83,114,188,227,21,29,62,18,106,206,189,74,148,230,189,211,89,150,61,200,143,29,62,172,77,1,190,17,87,252,189,19,242,8,189,149,82,54,62,129,168,45,61,67,214,109,188,235,38,6,189,247,106,96,61,194,212,229,61,73,240,241,61,46,131,63,61,166,190,247,188,34,243,7,61,122,91,194,61,131,7,41,62,56,140,212,189,80,57,22,190,36,255,62,62,123,171,75,62,76,80,212,61,4,67,176,61,228,38,121,189,185,71,27,62,59,44,132,189,54,126,130,189,61,98,26,190,115,162,85,61,144,233,44,62,53,240,186,60,79,212,207,61,76,53,216,60,42,222,44,190,3,150,168,61,202,159,15,62,108,150,141,189,9,125,49,190,28,42,207,61,209,194,244,60,167,253,128,58,167,87,68,189,21,205,218,60,36,59,179,60,255,113,137,189,72,88,56,189,115,211,179,189,3,42,244,187,34,21,34,60,73,116,177,189,163,236,184,61,76,162,98,187,37,58,239,61,134,162,185,61,27,89,142,187,10,161,13,190,237,64,115,61,29,152,204,189,252,213,189,61,121,243,238,60,55,245,35,62,65,121,226,189,92,151,199,60,88,228,169,189,71,145,20,61,27,221,84,187,242,116,153,61,71,138,20,189,7,10,247,189,112,119,44,190,92,179,41,189,53,69,88,189,145,130,87,60,136,2,184,61,202,76,41,62,133,227,108,189,152,54,173,188,25,193,228,189,243,119,207,60,73,7,210,189,32,225,149,60,27,57,218,189,237,225,55,61,240,147,0,61,25,124,215,61,59,84,206,189,141,6,107,189,74,204,150,189,165,132,162,61,204,98,247,189,211,73,163,61,3,144,146,60,105,120,199,189,27,12,207,189,149,159,36,190,127,156,152,189,202,240,228,61,78,186,194,61,216,153,130,189,83,178,15,59,249,111,70,62,22,241,25,190,54,40,181,61,127,199,191,61,141,192,198,189,68,24,66,61,104,5,184,61,254,169,132,61,166,107,148,61,63,25,134,58,65,207,122,61,203,124,31,61,133,163,71,60,160,64,208,188,170,158,13,61,139,202,60,190,11,111,51,190,74,181,78,61,11,76,162,60,169,211,12,190,144,164,59,189,65,96,70,62,243,14,16,60,140,224,203,189,254,175,27,188,21,221,236,61,169,134,15,62,147,120,198,60,221,171,4,62,203,208,107,189,45,81,186,61,131,186,25,190,58,63,139,189,165,118,41,189,197,88,32,60,182,122,24,62,171,105,156,61,10,127,103,189,199,238,28,189,88,249,18,190,225,132,33,61,146,250,43,189,60,39,27,190,53,140,225,61,241,62,50,62,130,79,0,62,139,186,239,61,213,69,222,189,3,212,3,62,203,147,170,61,231,146,192,61,52,104,91,60,200,206,138,60,132,158,233,189,30,167,132,189,10,218,137,188,231,47,176,189,3,21,237,61,250,227,30,190,197,132,79,61,207,27,85,61,189,53,17,190,120,81,50,61,137,89,242,188,148,250,155,189,164,77,4,190,114,101,208,61,174,62,144,61,146,54,209,188,81,190,18,189,35,121,14,190,3,25,17,190,255,41,9,190,170,246,104,61,125,26,104,187,231,218,145,189,202,161,148,61,124,96,223,188,180,27,5,62,117,56,248,188,81,234,214,189,187,205,68,190,60,248,164,188,134,231,132,189,146,209,30,61,178,101,144,61,147,241,95,187,51,75,201,61,16,189,4,190,177,141,76,61,226,244,41,190,114,19,180,60,190,154,117,61,89,72,7,62,164,59,10,189,145,171,109,189,210,67,7,61,222,137,13,190,8,41,36,62,113,193,188,61,133,170,204,188,254,130,131,189,28,206,24,61,25,40,176,188,100,107,45,61,47,177,244,61,133,219,58,62,125,205,236,61,206,83,202,188,122,68,25,190,156,18,139,189,29,230,29,61,91,1,52,189,125,78,147,189,9,6,232,60,83,141,4,190,101,186,55,189,134,107,153,187,93,104,214,189,24,231,136,61,109,92,90,61,112,14,3,61,238,12,15,62,14,57,187,61,141,59,222,189,173,23,101,61,204,148,65,187,160,210,81,61,171,234,138,60,153,253,204,189,208,95,178,61,155,192,62,62,198,92,184,189,126,110,30,62,144,149,88,189,111,18,35,188,213,242,15,188,247,74,18,190,51,198,27,62,28,148,5,62,140,228,29,62,16,144,176,61,134,34,34,62,108,208,14,62,175,57,138,188,1,86,140,61,113,250,17,62,66,255,26,62,166,248,31,62,216,117,149,61,155,45,62,62,125,8,39,62,233,5,186,189,142,139,56,188,42,198,207,188,129,75,32,61,151,65,11,62,220,222,144,61,5,142,187,189,9,70,138,189,213,181,129,189,224,223,120,189,16,196,116,61,110,69,52,61,12,23,125,189,165,132,229,188,151,30,2,61,245,243,195,189,14,128,25,61,194,40,85,62,125,184,165,189,136,167,46,190,90,227,70,190,106,209,191,61,199,151,81,59,146,200,73,190,19,219,90,61,224,99,244,189,162,179,16,61,163,224,221,187,212,64,142,56,35,147,23,59,38,173,1,61,9,217,154,189,99,92,17,190,208,156,172,184,218,103,200,188,219,166,87,188,121,209,60,189,163,155,32,62,209,225,248,61,158,242,228,61,191,129,151,61,165,64,129,61,76,86,108,61,21,67,175,61,130,69,149,61,47,234,208,61,103,43,68,190,88,146,18,189,17,12,173,189,77,30,145,61,98,28,183,189,97,228,20,189,77,140,80,187,248,220,253,189,66,222,31,61,130,46,11,61,199,75,23,190,147,240,101,61,185,232,51,189,55,92,183,61,49,116,146,188,171,49,185,189,136,241,61,62,8,254,1,189,24,13,137,61,17,152,17,190,56,172,218,188,134,157,244,59,187,141,241,189,157,72,118,61,208,172,186,61,153,9,31,190,46,22,43,62,154,49,215,189,217,44,211,61,154,194,9,190,161,212,250,61,250,251,247,187,201,49,213,186,112,109,185,61,237,127,169,188,255,147,170,61,79,254,158,188,155,122,221,189,94,35,206,61,228,206,18,62,96,154,104,61,73,12,195,58,64,1,146,61,121,87,205,60,65,247,16,190,222,56,185,60,182,49,108,59,104,33,4,190,80,95,37,190,166,230,202,61,97,70,22,61,130,239,235,61,218,106,47,189,90,207,33,190,174,247,24,61,244,67,147,188,202,8,218,189,140,98,227,189,242,196,130,189,244,76,48,62,86,62,43,62,141,220,231,61,150,178,176,189,55,108,37,190,178,2,225,61,36,213,144,189,184,241,24,190,232,33,47,189,182,44,47,189,98,254,8,189,132,114,36,190,103,245,32,189,163,81,13,62,126,20,32,190,237,219,203,60,208,43,14,62,82,38,167,189,114,50,34,62,235,182,3,188,132,101,162,61,40,159,245,188,102,187,182,189,103,205,20,190,89,36,3,190,103,158,130,189,16,153,181,61,193,210,18,62,2,94,249,61,145,1,155,189,167,19,196,189,251,107,220,58,152,242,225,188,53,237,241,188,41,48,117,61,74,149,189,189,213,185,223,189,226,18,52,189,94,96,92,190,111,3,153,60,157,183,142,61,24,105,180,189,240,232,230,189,102,88,52,189,232,234,34,190,95,146,22,190,80,161,211,61,76,149,47,190,88,113,7,62,75,22,16,60,185,53,143,189,237,218,234,188,66,157,10,190,58,239,36,189,73,90,177,188,139,79,204,61,0,208,252,189,74,43,247,61,6,79,213,189,195,82,3,190,116,215,80,188,252,209,189,61,0,172,233,188,40,163,27,190,104,41,35,190,91,157,32,62,184,229,142,188,58,80,72,61,154,129,82,61,5,141,149,61,60,213,24,62,116,99,26,62,88,91,156,60,231,71,132,61,191,125,30,190,60,4,26,62,4,152,146,61,196,45,143,186,206,184,240,189,156,242,170,60,252,4,254,188,28,102,179,187,216,41,159,189,183,14,23,190,193,184,48,190,10,85,208,61,247,179,184,189,178,189,150,59,145,90,236,60,128,13,149,188,251,101,175,189,129,16,9,190,185,100,200,60,15,250,45,190,11,120,101,188,68,113,145,188,203,76,39,188,76,225,151,188,175,78,232,61,4,18,41,190,206,86,93,61,42,39,79,190,59,182,29,190,27,62,37,61,59,17,203,189,77,138,128,61,230,237,100,61,101,245,37,190,34,9,89,61,80,164,12,61,211,179,170,189,230,13,176,189,139,64,234,60,252,44,129,189,86,33,205,61,51,176,149,61,191,30,134,61,127,127,2,62,179,61,252,61,62,52,251,61,65,245,243,61,48,215,71,190,61,163,36,190,40,239,25,190,126,249,52,190,192,197,83,61,21,78,172,61,155,60,38,61,163,202,150,61,192,213,212,61,155,73,223,61,107,79,4,60,37,39,217,189,3,35,43,190,146,52,100,189,101,41,160,61,157,189,158,188,74,76,242,61,171,76,9,62,245,168,71,62,233,115,64,62,194,92,70,62,216,184,0,190,145,51,212,61,17,94,130,188,142,216,59,62,173,162,49,62,200,200,226,189,43,41,46,190,43,25,244,61,43,20,207,61,57,124,130,189,65,203,146,189,162,198,21,61,65,10,239,189,9,161,223,189,58,140,160,189,251,241,172,188,123,52,25,190,158,29,4,190,181,122,173,189,5,220,190,61,32,117,3,62,4,41,189,61,101,194,119,189,59,113,248,61,145,78,15,190,254,190,129,60,229,210,106,61,122,240,24,190,46,212,232,61,148,89,157,189,18,243,44,190,232,145,104,189,41,208,104,60,77,54,255,189,48,197,254,187,25,193,216,189,76,255,25,62,134,195,94,189,68,156,220,189,195,239,81,189,68,120,245,189,242,178,29,190,103,102,75,190,237,213,64,189,229,236,113,59,130,162,98,188,139,227,209,189,168,183,51,190,161,18,14,190,230,98,166,61,93,145,43,190,54,101,193,61,91,234,109,190,107,53,170,188,106,53,63,190,94,202,175,61,37,193,248,189,130,189,192,189,211,7,220,61,40,89,184,61,112,194,161,61,222,96,213,187,221,43,177,188,241,192,111,189,110,150,252,61,192,32,16,190,28,233,33,190,208,236,127,61,197,193,4,62,62,120,64,190,91,30,237,61,193,107,240,61,141,1,192,189,66,87,93,61,116,14,53,62,202,223,171,187,63,207,192,188,167,195,19,62,212,239,200,61,160,133,226,186,207,162,252,189,101,149,34,190,151,137,138,60,6,227,58,189,185,160,223,189,142,109,28,62,26,77,41,62,186,189,246,61,228,227,73,62,210,4,158,189,204,207,171,61,11,215,1,190,30,106,2,62,240,232,205,189,15,103,38,61,63,185,176,189,111,52,234,61,150,106,181,60,50,84,78,62,123,177,11,188,104,93,14,190,179,164,20,62,193,83,84,189,104,161,7,61,236,176,212,58,85,186,29,190,66,107,101,61,130,44,178,61,54,90,17,190,234,190,1,62,218,56,242,61,246,219,0,62,38,241,16,62,201,78,255,61,46,180,43,61,136,43,195,188,218,89,24,190,60,44,170,60,168,170,82,61,184,55,237,61,242,10,229,60,134,154,75,61,155,97,221,189,79,210,43,190,146,200,28,62,178,204,17,62,118,254,243,61,119,173,141,189,118,222,82,61,161,157,160,61,21,30,29,190,255,57,151,61,44,149,32,60,8,244,148,188,198,101,226,189,108,140,236,61,1,214,223,189,159,26,22,62,141,195,48,190,6,117,28,190,254,195,204,189,165,189,132,189,179,95,28,62,81,54,231,189,118,43,41,62,131,100,241,189,197,59,87,189,53,215,218,189,63,22,185,189,77,131,202,61,75,13,9,61,124,127,92,61,70,221,225,189,248,94,179,61,64,209,137,61,160,38,219,61,95,26,1,190,27,49,9,190,168,238,99,187,171,227,37,62,107,113,118,61,109,34,164,189,16,47,239,61,22,5,76,189,11,94,252,61,79,89,65,189,13,175,161,189,150,114,235,61,243,36,224,61,159,16,170,189,201,145,31,190,233,247,193,61,201,50,128,61,80,224,35,190,250,249,126,60,110,50,199,61,90,3,174,60,215,242,164,61,205,220,215,188,141,31,53,62,38,215,185,188,126,129,141,61,113,77,135,61,200,27,249,189,10,51,55,190,4,16,40,62,220,3,152,61,229,60,21,190,38,34,20,190,219,236,174,61,248,254,17,190,125,237,178,189,142,210,198,60,131,228,112,61,120,237,224,187,211,150,44,62,248,253,251,189,208,0,37,62,132,197,4,62,5,134,55,189,216,221,39,62,212,166,57,190,190,165,38,190,218,231,19,62,52,197,14,62,51,42,134,189,232,220,22,190,226,242,16,62,66,160,254,61,65,71,25,60,39,143,204,61,206,205,171,188,115,162,52,61,13,46,222,189,118,101,223,59,26,189,223,189,168,88,5,189,114,124,181,189,16,155,162,188,116,147,58,189,177,152,177,61,231,114,23,62,143,58,159,61,24,200,28,62,229,8,123,188,108,217,8,62,3,71,203,61,80,229,197,60,134,25,135,188,165,241,169,189,116,144,229,61,166,79,18,190,151,48,248,189,192,184,162,189,12,215,16,190,154,108,216,189,152,73,142,60,44,253,116,61,234,98,219,188,125,208,158,188,148,124,236,61,106,218,170,61,174,161,44,60,166,118,66,189,217,57,122,189,63,236,248,189,107,215,214,189,40,8,5,190,198,219,228,189,114,49,175,60,17,165,204,189,162,71,11,62,141,13,142,189,255,124,161,61,42,152,234,187,206,236,10,62,18,131,163,59,74,155,141,61,154,201,151,61,137,80,240,60,82,137,212,61,219,76,18,190,63,203,186,61,53,101,228,189,253,229,17,190,138,127,95,61,52,176,129,61,216,58,25,62,94,174,187,187,123,212,54,190,120,178,244,189,57,7,130,61,108,162,3,188,56,70,189,189,191,105,158,61,118,178,127,59,75,35,254,188,60,218,217,189,208,97,228,189,87,77,33,190,235,150,236,188,228,138,154,189,187,213,23,190,249,76,223,189,18,59,167,61,110,87,158,188,61,116,206,187,178,55,183,61,158,169,141,189,110,245,220,61,30,124,164,189,234,86,137,189,211,190,24,190,3,163,19,190,87,117,227,60,113,142,91,189,157,50,241,61,107,222,142,61,4,219,213,61,37,137,13,62,85,79,212,188,156,165,72,61,92,153,168,189,34,56,175,187,190,29,16,62,237,189,24,190,105,144,13,61,182,82,174,61,44,10,43,62,253,99,24,62,253,6,135,189,17,124,51,62,173,254,26,62,226,116,22,62,23,114,142,61,151,146,76,61,98,191,6,190,87,244,164,189,101,111,178,189,230,254,109,60,98,31,198,188,75,12,93,189,172,243,143,189,76,170,201,61,91,124,205,61,234,222,144,189,185,104,145,61,14,221,14,62,193,160,94,61,155,33,66,62,170,237,98,188,107,131,222,189,5,135,33,62,224,19,54,62,147,253,198,189,41,21,196,58,103,100,213,189,150,176,149,60,114,217,134,61,14,185,56,189,222,126,46,60,120,134,122,61,6,36,166,61,176,155,78,189,201,199,152,189,100,87,45,189,17,112,178,60,242,172,99,189,35,142,28,62,112,5,191,61,6,146,19,189,157,218,14,62,139,152,22,62,4,218,7,62,227,231,29,190,168,252,35,190,53,116,56,190,35,191,149,189,155,143,12,190,27,245,252,61,165,147,10,62,252,131,32,188,20,74,219,61,151,97,31,189,67,195,162,61,231,88,4,190,247,112,27,60,76,167,28,62,231,160,241,189,119,244,9,62,127,9,196,188,61,108,30,190,146,232,102,61,25,175,14,190,207,75,77,61,49,16,36,190,88,126,203,61,215,116,138,189,226,29,158,61,49,92,243,61,47,45,43,62,159,17,65,188,49,172,24,61,102,193,132,61,160,228,12,62,202,6,97,189,254,211,50,190,110,25,23,62,11,64,82,61,32,0,15,62,229,45,198,188,168,184,185,188,77,66,88,61,53,37,32,62,71,133,253,61,254,6,240,188,255,52,130,61,118,244,15,190,192,189,163,61,202,231,6,61,254,237,220,59,18,220,155,61,114,161,30,61,230,7,52,189,130,205,130,61,216,163,123,189,142,160,50,62,53,76,251,187,158,65,165,188,94,17,229,60,250,113,149,61,45,132,30,190,236,175,14,190,118,170,170,189,114,6,130,189,194,30,230,61,96,29,227,61,102,104,10,61,161,126,249,60,133,198,29,62,46,177,161,188,145,43,40,190,125,213,251,60,36,41,222,189,135,147,137,61,137,86,43,189,37,68,153,189,249,231,132,60,24,13,167,60,249,95,187,60,231,225,67,62,166,243,221,189,137,89,61,190,142,173,208,61,168,131,149,61,250,164,76,190,93,21,190,189,128,228,15,62,240,164,26,190,140,103,185,189,32,59,43,189,75,86,161,61,181,92,7,190,242,106,191,60,243,149,202,188,181,239,54,61,182,221,14,190,27,138,184,60,107,75,231,188,32,141,13,190,106,29,202,189,208,2,7,62,10,114,243,189,155,212,160,188,56,210,130,61,83,249,137,60,38,117,72,61,6,74,25,188,165,105,188,61,124,84,63,190,193,43,215,187,47,13,166,189,129,228,60,189,213,232,42,189,214,175,4,62,22,209,49,62,170,71,228,61,170,95,47,61,72,54,16,188,13,122,129,189,37,27,11,189,204,152,13,190,234,17,2,62,14,233,229,61,136,241,243,189,78,40,156,188,117,84,152,188,40,116,146,189,245,183,32,189,191,165,11,62,126,29,135,189,28,158,54,61,163,171,140,60,27,105,39,188,25,46,104,189,15,245,196,61,248,104,51,61,141,65,27,190,184,107,104,61,178,33,189,189,75,166,225,189,71,36,65,189,161,198,69,57,85,38,41,62,38,11,7,62,151,16,135,61,88,96,0,61,55,207,191,59,17,235,39,190,236,239,150,189,69,30,67,189,51,55,169,59,18,166,220,189,134,239,133,189,21,141,19,190,202,168,238,60,202,23,173,61,127,36,214,61,63,2,30,187,75,52,63,190,116,26,130,59,106,11,77,190,182,77,105,61,113,211,255,61,146,16,128,59,194,198,161,61,141,17,26,190,76,179,143,60,132,39,4,62,87,36,233,189,118,92,60,190,176,210,180,61,185,58,37,60,29,108,40,190,62,163,226,60,176,236,217,189,70,104,130,61,206,187,221,189,164,162,190,61,165,191,34,62,99,252,41,62,219,222,171,61,32,175,192,61,182,9,129,61,37,93,14,190,91,124,24,190,52,10,237,61,112,28,72,61,52,121,33,190,182,154,177,189,227,109,55,190,122,29,49,62,136,7,185,189,239,117,178,60,226,210,193,61,118,99,1,62,77,77,16,62,77,188,33,190,116,158,16,60,197,37,131,61,37,246,89,61,254,43,90,188,239,2,185,61,16,247,152,189,25,8,42,62,131,185,181,61,149,100,2,62,154,34,31,190,2,100,175,61,163,230,52,62,225,103,37,190,181,108,43,190,223,189,244,189,235,207,187,188,141,218,156,188,174,164,188,61,68,131,255,61,169,45,26,62,11,154,194,189,238,125,16,62,27,225,34,190,85,27,193,189,122,175,177,189,58,175,175,61,210,138,240,189,164,131,119,189,41,35,146,188,147,43,209,61,81,188,240,188,193,248,45,62,248,29,192,189,189,6,44,61,169,118,175,189,189,233,176,61,39,231,146,61,24,95,13,190,9,191,98,189,40,43,197,61,248,152,118,189,95,205,143,61,73,209,1,62,30,15,254,188,188,36,244,61,38,40,181,189,14,175,39,190,147,122,110,61,37,153,223,189,236,15,240,189,214,94,14,60,43,125,12,62,229,160,187,61,37,95,215,61,182,91,140,189,105,236,195,189,8,141,0,62,180,210,75,190,100,88,133,61,187,135,192,188,65,125,30,190,135,20,197,61,223,132,162,188,93,113,20,62,25,221,219,61,214,95,242,187,83,183,169,61,114,23,191,61,251,125,18,190,0,55,133,61,88,129,101,61,122,22,194,61,153,186,240,61,51,75,29,62,83,57,41,190,209,29,47,62,147,70,16,61,67,100,51,190,194,177,94,190,224,94,40,188,80,103,230,188,127,233,100,190,227,200,80,190,21,34,175,189,156,156,185,61,31,20,6,190,216,190,242,61,10,155,223,61,11,108,248,188,76,185,62,189,90,32,161,189,243,10,135,188,148,91,123,61,44,125,95,188,241,179,196,189,231,152,62,189,91,20,137,189,242,10,94,189,186,124,27,190,156,90,152,189,141,239,253,60,69,17,145,189,90,212,4,59,51,220,8,190,234,162,28,189,145,26,44,190,187,1,198,189,248,248,161,61,163,131,213,60,118,165,100,189,29,155,74,189,191,210,248,61,82,87,201,189,192,169,133,60,153,119,54,189,79,202,77,188,175,210,250,60,195,25,28,62,167,124,243,60,24,158,23,190,163,247,179,186,198,43,62,62,55,95,19,190,91,129,202,61,33,198,87,189,64,223,38,190,105,100,18,190,102,1,93,61,193,241,10,62,16,14,0,62,38,32,227,61,94,214,124,61,163,192,202,61,187,38,28,62,12,95,31,189,136,4,236,61,85,1,0,62,69,105,221,188,65,151,127,188,213,96,142,189,178,62,214,189,54,151,145,61,35,160,245,61,6,151,54,188,13,124,133,188,246,196,185,188,11,135,226,61,95,151,254,188,108,18,24,189,208,229,36,190,204,222,150,60,108,20,25,190,0,246,23,190,152,34,3,190,140,135,18,190,190,33,76,61,57,195,188,189,237,210,37,60,28,142,149,61,12,116,213,187,71,247,15,190,123,92,224,59,124,105,182,187,11,168,26,190,68,29,138,61,159,27,237,189,147,252,74,190,23,169,12,189,30,190,89,189,69,230,182,189,104,71,236,61,148,42,221,189,73,35,200,61,19,18,117,189,110,5,80,190,52,24,87,61,36,173,24,190,100,196,32,62,7,21,74,190,24,1,246,189,137,113,185,189,57,215,159,61,59,133,162,188,94,238,26,189,157,187,186,187,89,223,200,188,214,193,217,61,92,32,9,61,193,234,22,189,121,104,72,190,208,184,30,190,2,205,203,189,120,251,160,59,193,59,249,189,185,194,204,61,201,208,196,188,139,177,55,190,88,5,215,61,84,47,146,61,190,150,19,190,44,236,79,61,53,232,184,189,93,34,16,190,82,40,191,61,197,207,152,188,162,83,3,62,207,109,27,188,151,210,14,190,121,108,172,188,79,50,25,62,254,85,156,189,86,140,21,189,142,15,134,61,95,232,223,61,185,93,54,190,27,1,7,62,7,249,106,60,18,198,190,189,214,120,158,189,68,155,228,61,230,67,185,189,35,166,241,61,60,214,165,189,210,25,71,190,167,187,254,60,100,247,161,61,50,132,29,60,78,190,89,61,27,167,194,61,222,228,145,189,231,231,232,61,227,48,111,61,55,199,119,59,41,238,24,61,125,29,150,61,0,204,9,61,140,114,132,189,215,19,5,190,215,203,130,189,244,73,13,62,208,38,22,62,70,226,226,188,207,167,41,62,166,211,150,189,235,118,22,190,18,21,123,61,87,91,13,190,111,68,197,189,208,161,57,62,165,191,2,190,135,73,39,61,8,110,128,189,148,241,65,62,211,148,128,189,60,182,27,62,0,0,84,189,215,95,149,189,209,31,4,190,106,252,134,59,240,129,231,60,140,85,102,185,141,203,118,59,115,99,180,61,93,25,2,189,28,252,255,189,87,76,238,188,69,193,2,190,170,221,0,190,190,107,5,190,134,36,1,189,122,59,8,189,97,99,55,189,226,19,202,189,137,90,64,190,98,98,165,61,116,56,8,190,3,114,24,62,158,134,213,189,90,179,21,190,178,40,178,188,78,39,47,190,46,43,136,189,174,204,143,184,106,140,195,61,3,214,182,189,50,121,68,189,32,249,34,62,90,80,47,62,203,20,173,59,251,14,147,189,188,113,155,189,90,184,181,189,125,90,133,187,83,33,238,61,175,39,185,189,115,59,20,61,160,219,139,61,127,206,7,189,84,149,93,61,45,234,14,59,6,246,134,61,140,5,194,61,91,183,21,62,46,187,32,190,112,143,34,189,117,205,9,190,53,98,6,190,151,193,201,61,103,221,27,62,177,103,33,61,119,13,168,189,171,94,217,60,106,186,254,61,88,210,23,60,102,142,187,189,215,144,106,61,60,90,52,62,201,41,252,189,95,64,120,61,104,142,206,188,51,30,178,61,221,203,161,61,46,229,98,189,41,138,120,190,108,237,145,189,56,133,0,190,143,246,111,188,186,97,177,189,213,52,19,189,222,125,1,62,123,7,88,190,90,0,94,189,150,2,180,61,226,94,3,61,107,132,68,190,212,120,207,189,206,44,231,61,173,83,196,61,135,223,156,60,66,102,205,60,68,169,201,61,22,164,2,190,82,17,98,189,81,78,23,190,131,54,162,61,217,81,135,60,113,231,129,61,75,127,154,61,241,183,39,62,198,239,86,62,171,247,234,189,214,29,141,189,186,176,102,189,33,247,41,189,235,41,232,189,100,175,219,61,236,255,175,61,231,11,61,62,45,114,205,189,16,33,141,189,13,63,251,189,34,148,153,189,122,8,198,189,157,191,21,190,69,128,59,62,220,87,106,189,9,227,5,62,192,134,230,189,233,187,157,189,67,156,2,62,93,56,12,62,232,178,60,62,8,13,204,61,217,64,179,188,54,46,200,61,216,166,51,190,231,161,252,61,204,155,23,190,236,58,71,187,202,224,13,61,119,49,30,61,108,125,102,61,7,177,92,189,160,199,217,58,217,22,211,61,206,236,136,189,94,248,236,61,10,197,63,62,241,60,123,61,138,219,206,189,230,150,53,61,191,234,52,62,178,50,217,188,181,141,67,190,201,113,108,61,170,210,213,189,66,89,103,61,249,196,149,189,133,237,7,62,104,47,149,60,107,115,208,61,247,43,197,61,171,34,221,189,250,242,14,61,25,127,8,190,12,166,143,188,150,126,34,190,33,222,13,190,244,38,10,62,196,126,164,61,91,10,106,188,158,55,53,61,95,157,184,61,254,188,16,190,128,185,207,60,225,173,91,61,196,220,244,188,224,76,21,190,192,248,91,61,15,8,38,62,252,167,72,61,45,47,28,189,30,32,45,62,180,244,28,61,45,132,123,60,78,232,161,60,204,163,22,60,68,173,82,62,123,10,37,62,232,192,120,188,222,23,164,189,158,204,73,60,44,48,145,189,47,249,20,189,169,242,145,188,38,72,231,61,165,130,1,190,241,123,186,189,130,203,209,189,75,137,145,189,130,206,0,62,49,181,96,61,40,119,177,61,12,225,193,61,253,223,6,62,44,174,24,62,8,254,129,61,91,91,45,61,136,155,222,61,204,181,248,61,249,253,229,188,78,241,123,189,165,218,72,62,41,3,36,190,178,90,89,61,168,4,113,61,30,245,128,61,216,228,60,61,77,224,15,62,1,154,176,189,72,192,38,190,42,54,190,189,42,6,191,189,164,237,6,62,159,160,97,61,227,195,35,190,225,28,255,189,156,154,219,60,240,81,116,61,34,68,185,188,174,120,243,61,156,151,122,59,134,208,176,61,57,82,195,189,138,203,234,189,167,68,201,187,132,242,4,190,135,163,47,188,171,204,105,189,174,31,59,62,17,186,239,189,37,157,22,62,183,21,111,189,6,77,129,61,211,84,5,190,196,229,2,62,47,117,53,189,113,105,194,60,210,14,200,189,167,171,2,190,69,223,197,60,247,34,94,61,40,25,116,60,28,28,233,58,247,142,232,61,188,224,0,190,222,41,23,62,253,216,4,190,92,234,193,61,77,24,69,62,61,14,197,60,39,253,220,60,166,180,16,61,76,55,26,190,180,72,192,61,218,103,84,190,222,131,15,190,174,219,0,62,2,139,26,190,189,70,166,61,13,2,21,62,161,52,196,189,255,163,22,62,67,110,186,61,112,43,244,61,88,136,233,61,58,41,13,190,119,230,8,62,185,119,142,61,22,253,16,60,51,230,87,60,218,19,240,189,171,3,76,61,8,74,114,61,52,144,10,62,120,176,30,189,163,163,140,189,89,117,226,61,102,206,88,60,157,153,35,189,192,114,51,62,238,75,242,189,60,73,197,60,105,105,237,189,113,140,155,188,168,216,200,189,140,126,195,189,204,101,146,61,49,66,24,62,226,62,207,189,23,167,140,188,86,85,26,190,4,85,19,62,178,124,132,61,183,97,168,60,134,21,225,189,108,184,46,190,132,82,227,188,193,229,250,59,130,185,43,61,237,138,66,189,187,63,14,189,220,110,227,189,153,254,215,189,53,44,6,190,222,217,196,188,114,226,201,60,103,253,81,189,170,85,35,190,169,239,37,61,221,203,171,60,140,150,239,189,153,221,138,189,137,54,45,62,235,22,27,190,115,3,254,188,196,146,46,61,252,195,43,62,127,152,239,189,207,225,230,189,167,192,176,61,87,158,51,62,211,88,208,189,58,70,250,61,185,158,51,190,172,61,200,60,5,81,236,189,35,147,16,190,167,223,254,189,54,195,157,189,234,191,182,189,244,159,247,61,154,28,251,189,115,212,146,61,206,144,70,190,7,15,22,190,122,87,29,190,122,95,253,61,99,236,178,189,110,41,23,190,162,186,167,189,96,151,206,189,245,45,47,190,7,171,92,60,173,12,174,61,2,140,231,189,188,239,15,62,119,30,239,61,29,122,77,189,170,123,227,61,192,251,23,62,141,69,206,189,4,35,146,61,192,87,78,188,112,78,68,61,188,78,240,61,74,152,219,189,75,247,114,61,84,126,99,189,85,120,48,62,133,79,168,61,138,239,236,189,196,215,51,62,99,138,61,59,217,88,194,61,135,74,204,189,190,254,211,189,189,60,9,190,217,147,164,189,113,54,170,188,179,157,28,190,231,146,20,190,59,68,238,61,26,141,24,61,34,193,224,189,182,32,4,190,185,186,103,61,158,216,227,189,126,134,64,62,90,45,233,189,114,36,192,60,255,200,244,60,78,141,241,61,214,230,37,190,239,237,16,188,1,13,10,62,246,197,169,189,149,33,226,189,235,58,25,190,139,232,39,188,40,127,219,61,219,92,33,60,146,191,164,61,22,12,93,189,210,19,149,61,166,198,185,188,249,235,219,189,161,173,250,61,49,87,42,61,236,229,195,189,111,173,103,62,132,177,5,62,28,232,60,62,224,74,144,61,2,137,43,62,172,140,152,189,142,152,31,62,253,226,162,189,223,155,135,61,228,193,190,189,224,247,105,61,20,43,140,189,232,144,24,190,178,128,232,61,229,58,162,189,64,23,191,188,210,171,129,189,19,62,159,61,177,198,16,190,239,134,219,60,212,22,154,189,14,224,185,189,93,214,159,61,112,6,16,62,240,177,37,190,181,73,10,62,241,174,4,190,160,0,59,190,100,118,151,60,42,52,208,189,171,169,225,189,215,18,105,190,236,147,192,188,70,229,5,188,156,65,101,190,252,2,248,59,152,167,61,190,68,174,53,61,66,114,51,190,180,162,148,61,154,0,95,190,19,124,162,60,40,51,58,190,60,215,67,190,61,66,246,61,46,16,89,190,135,142,189,188,254,226,165,188,32,192,72,60,8,23,35,190,212,63,212,189,0,67,36,190,165,185,117,189,1,73,244,61,54,134,181,61,197,129,0,62,147,107,19,62,250,35,36,190,54,172,136,60,82,66,20,190,197,1,186,61,48,229,1,61,149,253,74,61,197,156,145,189,185,176,120,189,201,97,14,190,97,212,204,189,123,71,32,62,36,59,18,62,208,55,10,62,53,27,232,60,210,53,11,190,122,140,42,62,251,188,194,189,9,6,221,189,169,131,194,60,41,198,38,190,45,56,247,61,178,66,36,62,184,176,166,61,209,146,11,188,61,189,244,61,167,48,164,189,21,151,196,189,66,4,5,190,118,35,7,190,30,120,231,61,189,205,2,62,243,242,30,61,235,7,157,189,180,150,10,61,150,46,16,61,112,136,31,60,31,221,234,188,27,25,57,62,232,154,150,60,55,31,89,62,82,162,23,190,188,30,62,62,68,112,148,60,121,205,111,189,34,198,214,61,137,159,31,190,35,26,18,190,178,29,150,188,130,130,10,61,12,120,2,62,27,236,187,61,7,158,231,188,10,46,11,190,199,170,34,62,116,130,220,189,207,2,246,189,129,53,30,62,228,179,240,60,49,118,30,60,215,38,128,189,74,158,153,61,64,115,184,189,68,4,77,190,4,44,191,61,243,204,179,61,106,144,13,190,125,51,215,61,168,102,121,189,108,125,236,61,174,78,170,189,128,86,229,61,190,168,227,61,67,117,65,190,246,128,26,60,153,102,205,189,174,48,29,190,110,214,25,62,231,138,34,190,15,245,211,61,212,246,43,62,173,159,221,189,41,244,237,61,151,200,198,60,32,33,4,62,130,137,183,189,239,168,199,189,144,26,233,188,152,25,132,188,147,55,38,62,73,64,203,189,122,104,166,60,91,40,0,62,45,65,19,62,185,46,222,61,235,224,180,61,210,197,83,189,212,78,128,61,136,181,132,60,47,86,134,188,76,53,218,60,113,87,2,62,147,125,56,190,179,251,218,189,64,38,124,59,180,196,31,186,62,255,20,188,36,191,76,189,254,108,28,190,112,78,183,189,83,192,39,62,116,129,177,187,18,138,57,190,5,146,210,189,187,28,27,62,202,169,81,61,175,217,187,189,189,43,202,59,248,219,1,62,33,248,81,62,117,138,26,188,183,230,120,189,181,167,81,61,78,5,148,61,232,113,154,187,20,86,29,61,0,64,23,187,217,149,59,61,183,67,235,189,148,174,155,61,219,92,188,189,144,139,56,61,181,237,38,62,161,18,34,59,243,140,81,189,153,78,27,62,26,53,245,60,103,163,122,61,209,150,196,189,184,40,180,189,118,10,15,59,240,60,220,60,3,255,44,190,195,51,231,189,121,160,59,189,65,182,217,61,170,38,225,189,29,243,29,61,105,159,110,60,133,87,250,188,88,168,244,188,99,248,27,62,123,74,144,189,43,242,42,190,180,38,196,61,213,187,228,61,183,134,187,189,167,209,203,60,47,6,89,61,161,98,39,62,190,149,139,188,116,170,55,62,207,23,10,188,53,187,227,58,147,179,73,62,83,7,27,62,33,50,44,189,200,233,14,190,82,6,244,61,83,171,38,190,218,128,173,189,199,18,236,187,242,114,66,189,233,158,250,189,110,75,92,189,51,152,33,190,143,156,188,189,44,109,7,62,151,49,149,61,120,165,179,189,212,164,253,188,142,16,29,189,29,51,176,61,125,60,17,61,62,26,242,60,130,130,216,188,142,199,182,61,161,210,47,62,9,10,213,61,50,52,18,62,33,147,20,189,156,250,33,190,207,244,12,190,187,205,24,190,43,124,245,59,12,119,36,190,140,58,17,190,18,108,175,61,243,25,221,61,204,80,148,188,89,127,223,61,247,101,72,190,225,191,114,189,1,15,44,190,45,148,26,189,54,95,44,189,12,205,104,61,104,219,249,189,74,18,133,189,188,215,140,61,85,44,211,189,222,127,35,61,188,37,181,61,174,155,242,61,199,81,31,61,217,212,143,61,48,149,198,189,28,245,199,188,235,98,108,60,192,85,209,189,128,205,15,62,158,43,135,61,121,235,173,189,18,2,101,61,187,96,208,189,176,216,11,62,85,127,231,189,39,45,198,189,163,194,248,189,179,47,129,189,0,110,171,189,114,43,227,61,188,51,0,190,1,105,128,188,116,253,49,190,149,35,29,62,103,247,189,61,196,112,218,189,35,221,19,62,179,225,212,189,94,58,73,190,97,42,172,61,209,215,107,61,78,21,38,190,235,199,43,61,90,70,24,189,94,238,52,189,126,156,83,190,102,65,55,190,71,96,81,190,120,80,155,60,177,102,23,190,104,113,247,61,162,12,168,188,197,148,85,190,60,136,183,60,16,254,166,188,88,52,24,62,98,159,70,190,84,119,175,58,206,198,65,190,69,97,37,190,102,46,122,189,92,126,44,190,218,203,233,189,192,136,187,61,192,82,212,189,231,41,14,189,232,241,108,62,214,167,178,61,75,110,245,189,96,3,238,188,198,89,251,61,115,199,178,61,212,86,168,61,124,20,36,58,237,151,4,189,230,171,50,189,10,47,155,61,109,112,92,61,126,25,200,187,146,54,2,61,160,254,14,189,223,235,85,61,114,225,64,62,43,121,19,61,5,254,190,61,204,159,233,61,253,240,24,190,140,34,242,61,219,176,122,186,253,230,38,189,107,197,208,60,39,128,153,60,209,188,237,61,103,224,213,188,191,39,95,190,192,136,208,61,5,227,56,189,140,164,211,189,52,162,159,189,49,20,165,61,79,236,255,189,175,162,122,60,58,20,53,189,87,178,183,60,85,173,69,61,27,82,209,61,236,44,213,189,245,160,11,61,15,41,218,189,6,243,53,61,185,45,38,190,53,9,238,60,114,122,219,59,150,248,233,189,58,200,203,61,81,227,71,60,144,114,9,62,162,215,9,190,187,11,177,60,166,214,17,190,124,41,155,189,12,220,151,189,82,66,129,189,68,105,7,190,190,25,173,61,83,154,53,189,81,226,174,189,142,99,242,61,47,154,230,61,248,107,83,189,177,68,236,189,211,126,1,62,69,219,39,61,167,143,219,189,204,165,170,189,206,119,28,188,160,253,3,62,138,143,235,189,252,254,203,189,38,80,64,60,76,74,214,61,17,219,222,189,209,225,128,61,118,210,50,61,64,179,9,190,151,141,19,188,83,37,29,190,145,156,139,189,113,109,136,61,214,243,195,189,249,12,179,61,145,174,66,190,63,183,56,190,139,173,231,61,255,4,75,189,3,252,148,61,105,63,8,62,216,180,28,61,9,85,3,190,126,78,41,189,118,25,142,189,142,183,8,61,214,152,207,61,192,8,96,190,231,35,240,61,210,123,212,189,16,9,63,190,70,62,43,187,104,183,100,61,136,204,180,189,182,129,13,61,25,39,126,61,144,182,37,190,122,218,25,190,43,86,192,187,102,136,50,190,144,168,104,61,254,148,29,61,191,113,22,62,10,133,57,60,181,120,104,189,223,27,46,62,223,128,34,62,229,203,185,189,131,10,65,189,106,77,13,190,132,82,10,190,204,79,214,61,165,3,72,62,91,190,245,61,206,173,30,62,44,44,4,190,191,77,146,188,57,42,179,60,200,224,14,61,222,94,138,189,3,84,49,190,189,221,42,61,209,47,65,190,150,96,27,189,254,173,25,62,35,201,171,61,6,1,242,189,44,113,136,189,53,218,7,190,117,218,195,61,125,104,79,190,205,100,62,61,56,129,54,61,203,76,134,189,77,171,164,189,92,22,212,188,106,170,42,190,59,46,2,190,165,54,45,188,137,19,42,60,208,27,126,188,255,162,34,190,225,219,157,189,216,223,213,60,225,62,169,189,18,194,19,61,91,97,214,189,110,6,24,190,150,74,153,189,96,98,130,190,33,209,128,189,82,187,51,190,221,49,245,61,197,165,32,60,99,69,227,61,82,194,62,61,249,4,152,60,199,186,204,61,63,57,223,189,83,237,73,62,156,172,17,62,213,209,240,61,59,143,226,188,126,2,109,189,60,149,54,189,0,58,150,61,194,51,116,60,98,167,195,189,121,224,47,62,130,209,66,189,133,60,12,189,40,28,83,61,52,32,34,62,250,190,235,189,72,19,46,190,144,57,15,62,83,217,197,61,67,105,224,189,97,7,63,189,37,174,21,190,98,24,1,190,199,18,230,61,194,64,46,189,4,232,160,61,95,121,72,189,76,210,252,186,120,84,177,189,136,212,196,188,74,73,14,62,66,74,214,188,208,141,221,189,200,4,81,189,114,216,35,188,240,162,42,61,15,101,205,61,177,155,245,189,177,172,253,61,38,251,245,59,4,22,165,189,92,118,129,61,253,238,254,60,202,116,90,60,118,195,17,190,165,7,83,62,169,209,236,189,94,171,199,189,143,87,229,189,63,228,31,62,100,0,6,189,66,146,188,189,235,250,36,190,35,154,163,189,16,253,180,189,143,201,40,60,63,228,59,189,221,86,43,190,201,143,73,59,209,130,202,61,44,95,236,188,55,61,227,61,140,163,170,189,92,0,214,61,96,240,168,189,1,101,16,190,248,33,183,61,169,15,10,190,3,46,1,62,137,245,212,60,129,57,184,189,15,3,84,61,253,62,41,190,238,56,61,190,70,231,128,61,40,23,149,60,55,108,124,61,51,190,146,61,10,142,148,60,22,165,122,61,87,74,65,189,236,109,30,189,180,227,77,61,253,27,233,61,236,228,130,61,126,66,53,61,255,227,189,61,226,15,8,190,103,68,71,189,18,34,129,60,27,77,128,189,180,29,26,62,53,42,81,187,180,21,189,61,187,152,176,189,107,98,169,189,195,151,10,190,251,151,115,61,59,93,150,189,170,119,12,62,197,21,91,61,32,154,229,55,90,56,213,60,51,26,39,190,217,178,252,189,91,218,60,60,234,236,107,61,229,83,30,62,141,107,90,61,46,225,70,189,119,130,219,61,253,239,44,62,90,89,200,60,78,210,250,189,235,170,152,187,86,159,161,61,14,49,77,61,252,231,15,62,173,143,191,189,167,194,248,187,48,220,20,62,32,192,198,189,151,103,196,189,66,108,66,190,194,45,62,190,202,85,247,61,37,42,5,62,92,169,175,60,13,56,45,62,50,210,201,61,203,141,250,61,60,62,1,62,202,184,240,61,225,46,2,190,5,169,218,61,62,80,211,189,84,217,5,189,157,46,246,188,12,69,57,61,88,251,185,188,94,113,9,190,147,219,137,60,243,83,143,188,172,111,6,187,92,208,19,190,140,130,148,58,215,0,98,61,5,150,255,189,96,240,91,190,153,60,175,189,234,141,124,188,74,34,235,188,22,144,201,188,57,125,31,190,176,170,174,61,60,28,189,61,159,108,142,61,246,206,60,190,45,188,128,188,100,9,58,190,197,77,190,189,183,86,38,190,120,118,11,190,141,191,30,60,135,197,40,61,158,35,128,189,62,79,165,189,118,241,242,61,217,79,242,189,254,15,254,189,126,24,167,61,80,10,240,61,14,80,132,189,51,3,13,190,235,120,105,189,130,240,232,61,77,81,21,62,176,162,125,187,100,12,211,61,227,92,150,61,207,184,1,62,181,237,177,60,26,87,184,61,83,109,18,190,58,181,59,62,211,124,225,189,138,144,132,61,195,169,40,62,51,224,245,60,5,126,10,190,57,27,109,61,135,4,228,61,175,164,209,61,247,203,240,189,107,210,27,62,25,140,116,61,181,173,215,187,116,35,28,189,62,129,60,62,181,90,214,189,4,41,163,61,35,57,53,59,89,27,177,187,86,91,249,189,194,51,26,190,255,6,202,61,58,6,61,189,185,113,210,61,102,75,206,61,99,73,5,189,207,98,186,61,237,178,11,190,207,159,134,60,212,99,59,190,198,43,56,190,64,248,208,61,171,235,110,189,226,203,0,62,37,49,32,62,2,205,11,62,131,71,37,187,137,145,25,189,246,131,172,189,170,240,234,188,92,148,73,190,44,253,132,188,228,142,184,189,57,250,23,189,65,191,38,62,91,86,164,60,231,197,206,61,75,154,253,61,44,246,12,190,13,237,35,190,71,244,40,190,193,137,2,62,201,118,34,60,16,15,152,188,199,146,92,189,168,187,16,190,83,179,38,189,171,120,58,190,181,56,187,61,63,67,69,60,211,50,177,189,108,164,25,60,193,52,65,61,37,44,240,59,34,228,123,61,115,163,48,188,29,2,235,61,35,24,237,189,181,76,157,189,51,251,8,190,250,26,43,189,205,119,26,189,129,71,199,189,114,243,150,189,180,116,39,190,214,234,198,188,202,113,231,61,96,128,240,189,152,196,196,61,129,209,52,190,77,33,158,60,161,30,98,61,222,189,27,62,138,145,1,62,255,234,171,188,150,128,202,61,96,70,237,61,71,224,184,61,126,193,253,61,181,177,218,188,189,101,143,189,250,102,58,187,206,107,11,190,122,144,226,61,195,240,81,189,92,253,10,61,112,254,196,61,23,108,215,189,96,139,84,189,24,204,154,188,160,81,3,62,204,64,187,61,215,85,169,61,255,125,7,62,243,247,1,190,166,76,244,61,8,3,245,188,254,203,67,188,213,39,119,61,136,52,146,189,190,28,220,189,0,169,184,189,122,116,139,188,154,157,40,190,106,251,172,189,203,69,235,189,61,141,63,189,113,223,238,61,166,224,54,62,250,134,179,189,166,88,190,189,248,218,51,62,139,255,15,62,217,180,15,61,62,176,37,62,148,116,242,189,100,45,7,62,198,72,18,61,13,113,82,61,167,38,13,62,195,53,4,190,90,98,34,62,178,226,174,60,212,197,129,61,142,192,83,60,205,235,239,188,50,254,13,57,128,234,55,189,222,152,111,187,242,119,162,189,149,164,226,188,208,143,34,62,167,179,237,189,209,20,60,62,13,104,235,189,236,248,7,62,101,201,37,61,11,212,13,62,14,255,207,61,165,133,167,61,253,235,238,61,25,0,84,187,254,9,239,189,75,173,140,189,228,212,48,189,33,102,222,61,226,246,71,189,193,99,252,61,50,88,81,189,45,205,50,62,0,41,49,62,27,4,129,189,14,162,56,187,255,67,9,62,54,9,93,189,117,67,242,189,178,116,208,60,201,16,230,189,124,230,148,61,31,3,181,189,88,160,234,189,98,191,11,62,57,170,18,62,6,198,145,61,246,131,161,189,43,128,6,190,150,9,120,189,174,249,7,190,116,181,92,61,247,93,100,189,165,207,12,62,174,5,151,189,140,178,8,61,252,89,135,61,43,186,1,62,139,194,172,188,191,72,202,189,167,228,211,189,213,176,32,62,86,27,57,61,169,152,9,61,147,37,20,61,36,70,89,61,69,236,59,62,231,218,30,190,197,41,40,62,44,0,41,60,208,174,100,189,176,24,17,62,167,84,53,62,244,188,252,189,221,125,237,189,251,50,13,62,34,206,12,62,254,121,203,61,243,87,17,190,105,220,25,61,101,245,58,188,41,29,157,61,137,104,40,62,11,74,207,189,99,252,153,189,100,120,200,60,252,132,148,61,174,176,51,62,211,1,137,61,61,49,0,62,240,255,156,61,91,93,82,61,33,115,180,59,0,207,223,188,203,110,188,189,52,94,225,61,222,77,61,61,103,120,12,190,38,61,51,190,100,113,32,190,147,55,222,61,80,128,135,61,73,127,85,190,240,191,227,61,235,206,44,62,100,209,5,62,231,89,125,61,120,1,94,57,76,230,9,62,167,51,123,189,40,245,62,190,185,83,36,190,106,45,119,61,34,155,11,62,250,30,20,62,152,248,167,189,147,20,203,189,80,95,64,190,57,194,9,190,217,76,135,189,165,99,79,189,25,218,128,61,105,81,4,62,132,197,223,60,56,205,56,61,211,195,30,190,78,91,38,61,183,153,197,189,170,194,212,61,88,226,192,61,200,35,71,61,18,10,217,189,111,43,226,189,39,142,18,190,69,66,227,189,42,182,9,190,164,155,183,61,133,178,192,60,168,134,248,189,250,12,239,61,154,187,0,190,102,100,46,190,238,42,240,189,187,145,4,190,110,138,130,61,133,225,204,189,151,10,41,61,114,146,25,190,123,163,238,189,190,153,3,61,131,240,62,61,1,235,89,189,254,156,18,62,165,236,161,189,120,47,136,61,21,252,216,61,22,250,7,61,189,230,180,60,43,62,150,188,204,80,241,60,55,254,188,61,177,45,190,61,205,249,68,187,200,226,13,59,192,141,184,59,11,209,24,62,40,106,142,189,163,149,151,189,204,96,144,60,68,77,33,189,155,238,11,62,53,190,134,189,99,233,56,190,170,208,25,187,164,116,4,190,142,127,27,62,252,249,3,62,70,203,109,60,254,127,198,188,133,163,245,60,174,201,1,62,157,62,64,189,64,18,30,62,16,153,31,62,151,7,43,62,78,51,135,189,166,99,28,62,234,205,28,62,200,39,12,189,226,183,118,60,136,70,34,190,122,119,12,62,169,202,214,188,111,99,32,190,136,153,166,188,102,105,54,190,88,55,193,61,35,214,148,61,219,18,82,59,118,247,136,61,10,29,25,190,204,134,230,61,4,227,79,60,72,152,12,61,29,0,208,61,156,181,26,62,237,140,34,187,106,180,224,188,69,201,60,62,197,7,238,61,103,194,242,189,171,75,62,62,223,226,195,61,43,106,11,190,212,245,10,190,187,132,134,61,181,46,176,61,5,169,13,189,230,41,230,189,108,20,120,61,2,5,46,190,5,86,225,189,7,54,2,61,202,138,43,62,16,117,77,62,118,175,224,189,222,181,71,60,185,115,253,61,62,109,180,189,126,57,150,189,235,144,64,61,254,224,73,189,59,32,187,61,194,19,5,190,97,16,35,190,228,121,168,189,224,180,224,188,1,229,133,60,59,26,216,61,179,147,15,188,196,79,64,61,255,15,236,188,228,82,144,60,143,21,16,62,45,188,182,61,223,238,30,190,94,11,167,61,123,230,19,190,237,45,9,190,73,204,0,62,190,98,30,61,158,234,149,61,184,228,120,189,44,107,70,189,98,245,9,62,126,57,30,61,229,94,97,59,36,129,5,190,154,113,239,60,237,232,0,62,246,246,71,61,57,164,219,188,201,15,162,59,212,225,35,190,46,191,23,190,106,236,107,189,171,2,21,190,8,231,35,61,235,231,16,62,173,39,169,61,99,235,78,188,71,217,195,61,232,217,133,61,227,240,232,189,197,42,11,190,234,5,186,189,163,189,233,61,10,112,10,62,114,19,255,188,225,202,157,189,7,122,19,62,58,83,241,61,165,136,144,61,168,133,125,189,16,87,163,189,156,204,231,186,160,161,170,189,137,219,1,61,245,85,53,190,177,140,195,189,200,246,211,61,3,131,13,190,113,13,216,189,142,56,202,61,200,143,168,189,159,139,83,61,89,41,236,61,128,149,231,61,63,51,4,189,200,87,234,59,209,11,44,189,80,79,3,62,61,55,231,61,21,111,115,190,166,210,181,61,193,47,31,189,93,152,170,189,131,90,246,189,162,111,196,61,95,240,12,188,241,21,120,60,24,76,189,61,20,14,78,61,195,60,12,190,243,191,151,61,181,22,129,61,121,30,255,61,219,98,208,61,213,147,72,189,185,17,56,61,3,250,167,189,116,182,212,188,21,53,133,188,152,35,87,61,103,217,249,61,244,246,236,189,176,231,8,189,135,11,89,60,122,225,5,62,103,120,47,62,6,108,77,62,146,4,244,61,147,45,8,62,166,239,22,61,160,139,71,61,78,46,23,190,243,255,8,62,238,166,107,61,120,223,221,188,28,165,189,61,11,138,139,60,43,192,161,61,145,169,152,189,183,168,37,190,17,135,162,60,212,212,202,61,189,55,132,189,235,115,134,189,40,81,6,189,131,217,8,190,124,3,4,62,11,177,198,188,127,139,77,61,208,122,7,189,0,153,251,189,143,195,116,189,125,141,72,189,75,1,24,190,86,221,32,190,38,88,42,189,7,158,31,190,94,1,99,189,55,165,107,60,189,4,219,189,137,32,206,60,39,176,38,190,197,164,254,188,63,98,206,59,185,112,3,190,37,102,53,190,28,158,211,189,255,70,135,189,28,126,2,189,60,139,179,61,51,186,62,190,207,76,156,189,119,120,159,189,124,172,231,61,252,152,36,189,37,183,20,190,197,42,90,189,211,208,174,59,102,205,83,59,134,4,2,189,17,184,200,189,230,121,194,189,113,114,27,188,132,210,40,62,20,224,36,62,105,136,254,61,104,254,82,189,194,106,18,62,84,21,202,189,54,10,196,189,128,218,30,190,207,255,137,61,241,250,92,61,136,123,113,189,54,148,126,61,150,144,161,189,227,113,22,61,220,215,28,190,194,21,3,62,116,86,183,189,37,70,115,189,167,197,16,62,232,136,238,60,0,148,222,60,67,93,25,62,34,2,174,61,13,80,201,189,115,117,52,189,188,143,54,61,165,37,205,188,2,204,56,62,189,247,149,189,193,72,82,62,89,220,13,62,169,211,6,61,40,181,194,61,122,131,248,188,6,173,248,61,174,147,59,189,58,44,29,62,160,111,72,62,182,112,153,189,96,6,217,189,226,109,140,189,67,32,0,62,33,85,60,62,164,88,136,61,133,54,194,188,116,190,97,189,166,89,233,61,59,242,191,61,198,63,3,62,77,138,152,61,39,153,11,62,201,82,119,189,237,189,247,61,11,49,1,190,135,95,100,188,13,154,180,189,159,33,197,60,130,209,254,188,99,105,198,61,122,120,205,61,148,177,222,189,147,219,186,189,79,23,238,189,140,65,236,61,63,183,148,188,141,158,228,189,247,114,3,190,193,210,61,189,92,243,119,61,99,17,234,60,174,180,247,189,68,180,219,61,74,188,75,62,70,204,135,57,131,212,178,189,141,215,107,61,25,62,117,60,16,39,56,60,67,210,62,60,168,222,179,61,140,8,239,61,73,131,94,62,174,63,51,61,210,217,235,189,91,17,7,62,233,255,35,189,242,66,0,189,35,198,64,189,184,159,217,189,51,79,145,61,106,27,132,61,35,105,18,190,139,230,146,60,240,95,67,190,14,31,192,189,100,238,69,190,23,55,25,62,168,111,232,189,234,76,16,190,88,109,86,190,141,238,150,188,50,87,38,189,78,161,206,60,0,191,215,61,97,182,75,61,48,168,104,61,138,56,33,189,19,252,109,59,155,170,239,60,172,205,231,60,73,151,225,58,144,248,47,190,126,23,38,190,219,193,0,188,14,247,158,60,4,147,135,189,102,186,168,60,175,134,139,189,253,108,146,59,218,132,4,187,164,228,68,61,24,120,48,189,37,245,193,189,213,216,203,188,20,20,40,190,18,21,255,60,119,85,238,61,70,118,7,61,42,4,250,189,162,106,150,187,171,33,119,60,131,57,197,61,127,93,154,61,86,113,7,190,248,152,146,189,73,0,85,58,151,169,184,189,107,41,15,62,175,42,5,190,7,255,191,61,197,178,178,189,85,203,156,61,93,17,218,189,92,149,203,61,67,138,111,189,181,197,9,62,72,245,30,190,128,2,194,60,129,165,197,61,250,135,36,190,127,56,93,60,8,117,143,189,0,217,57,190,47,24,90,61,236,79,166,61,252,208,44,60,155,156,68,60,45,174,2,190,144,173,141,59,164,116,158,61,191,27,202,61,46,168,8,62,249,26,41,61,114,196,177,61,120,255,47,62,129,60,11,62,159,237,177,187,133,198,41,61,122,186,153,188,87,67,35,190,8,217,45,189,137,120,226,59,136,51,136,61,165,32,71,187,145,78,46,190,163,10,5,62,127,180,181,189,178,133,26,62,55,102,16,61,134,217,125,61,127,218,22,189,52,72,47,61,8,43,31,190,91,246,129,189,219,0,42,189,154,184,242,186,233,189,15,62,224,218,23,62,137,170,243,61,57,47,26,62,11,241,49,190,155,56,205,59,90,232,197,61,223,228,182,189,164,119,57,62,209,26,121,61,154,33,211,61,81,19,37,189,185,1,109,189,1,92,152,61,211,124,51,62,30,49,41,60,32,104,217,60,67,180,251,188,5,81,51,190,51,176,183,61,31,42,242,61,48,151,236,61,117,217,2,62,2,217,78,190,96,180,152,61,23,228,34,189,5,216,137,189,79,150,50,61,236,20,146,189,146,154,195,189,202,159,204,60,48,196,16,190,119,90,227,189,97,45,35,189,119,73,93,189,112,184,4,190,141,119,142,61,105,209,239,189,17,21,203,60,110,62,5,62,109,16,106,189,105,51,6,190,32,62,27,62,69,83,247,188,83,155,14,62,225,41,62,189,85,151,164,61,129,250,166,61,37,122,25,62,47,172,23,62,31,175,151,187,71,110,142,60,156,108,242,61,201,112,139,189,87,48,93,60,154,60,233,61,40,164,3,62,206,6,48,62,182,32,9,62,222,72,37,62,124,31,94,61,92,162,80,190,95,129,167,189,180,70,86,190,116,114,8,62,248,111,64,188,88,103,130,189,13,35,36,62,111,86,94,189,44,51,95,189,210,186,243,61,39,130,1,190,81,184,213,61,68,138,45,60,251,129,112,188,64,31,22,61,45,151,219,61,12,127,173,189,63,71,5,190,47,16,50,190,225,53,218,189,240,65,22,61,19,160,18,190,172,218,24,62,67,226,27,62,145,36,59,61,164,196,70,60,117,120,234,61,255,138,16,190,80,31,255,189,122,26,54,190,167,175,134,61,249,99,197,61,36,167,18,190,138,210,152,60,144,177,58,188,138,120,165,189,110,230,132,189,81,173,147,189,255,213,76,189,63,244,139,61,72,220,152,61,209,50,40,190,13,215,34,190,83,48,236,61,240,100,186,188,159,195,255,189,17,241,147,189,9,204,176,189,113,149,194,189,62,232,55,190,120,237,66,190,165,209,59,189,206,250,34,190,146,202,99,189,146,31,5,189,100,65,64,190,70,43,38,190,22,111,142,61,252,52,131,189,242,3,68,61,43,133,7,190,15,219,140,189,221,186,88,190,160,66,235,189,149,244,24,190,203,101,9,188,12,192,68,189,211,18,126,61,157,37,26,62,10,74,158,189,59,41,22,190,55,146,186,61,112,175,99,189,195,103,29,187,150,136,208,61,141,135,14,62,183,116,120,188,82,195,2,190,239,166,210,189,249,254,158,189,222,225,20,62,143,183,108,61,118,87,108,60,179,74,185,189,153,213,164,60,179,91,210,61,168,236,56,189,179,95,32,62,115,167,157,61,145,149,240,189,207,162,195,189,250,196,172,189,210,162,244,189,143,193,238,59,217,152,84,62,2,211,223,61,72,11,95,62,152,142,77,189,59,21,118,189,151,36,180,61,63,243,147,189,130,164,26,62,150,131,72,62,85,219,169,189,215,193,4,190,89,28,114,189,159,212,189,189,131,218,200,61,70,104,218,188,183,250,159,189,70,99,170,188,13,104,40,61,15,200,0,62,152,17,113,61,26,232,146,189,33,37,168,61,97,19,61,186,0,42,253,189,16,148,131,61,63,25,178,61,164,242,49,62,130,69,222,189,48,177,177,189,239,247,132,61,156,242,136,61,188,101,137,189,94,221,51,62,104,35,32,58,131,29,13,62,113,135,197,59,252,102,21,62,209,210,166,61,193,241,73,190,108,34,200,61,102,163,32,190,107,255,55,190,42,88,45,62,205,162,150,189,19,94,96,189,65,179,211,61,79,154,129,189,255,191,67,189,43,248,188,61,31,225,30,190,224,233,30,190,211,134,150,60,189,100,194,61,63,228,49,62,92,30,230,189,212,250,66,61,205,3,226,61,68,49,133,61,34,62,22,190,88,145,178,61,199,251,130,61,99,121,172,61,31,45,50,60,160,227,240,59,147,20,47,190,162,0,185,61,118,64,38,62,249,254,43,62,185,193,177,187,174,206,22,190,91,89,88,189,244,233,200,61,50,190,12,62,209,178,6,190,187,235,249,189,195,105,206,189,72,125,5,62,130,126,201,60,214,92,22,188,225,63,236,60,157,13,231,61,107,242,55,190,21,125,111,189,67,24,13,189,42,164,33,190,135,157,29,62,125,95,228,61,181,53,145,61,140,112,4,62,192,172,5,62,79,75,143,61,203,76,21,62,29,144,225,189,33,152,215,189,224,191,169,189,124,23,200,61,32,78,182,189,223,110,79,189,14,100,196,61,238,230,29,188,3,95,24,62,211,220,136,61,241,124,197,189,231,68,41,62,111,88,40,190,248,3,242,61,81,251,239,61,31,144,3,190,232,254,159,189,195,12,210,61,124,248,138,61,118,46,7,62,18,46,185,59,20,195,153,189,180,36,145,61,105,221,158,188,195,216,164,60,101,73,81,188,215,69,52,61,221,109,235,60,153,67,105,61,56,124,115,189,107,7,5,62,123,242,10,189,145,176,139,189,30,188,227,187,96,194,118,61,6,217,231,61,220,40,226,61,201,167,106,189,158,203,248,61,1,93,201,61,225,39,138,189,5,110,51,61,198,72,34,190,75,94,28,189,191,142,136,189,7,51,12,190,202,188,177,189,68,134,51,190,159,36,10,189,69,103,61,190,255,24,29,62,36,188,0,61,48,197,197,189,184,16,180,189,64,71,202,189,12,50,197,188,94,51,120,61,239,104,132,188,65,30,47,62,0,160,184,60,207,242,28,62,203,0,166,187,0,100,248,189,173,1,192,188,65,108,22,190,127,187,20,190,88,34,93,61,42,191,26,190,203,183,192,189,128,236,31,189,91,189,7,60,3,94,226,60,116,156,238,188,81,190,184,60,212,191,132,61,226,36,242,189,121,52,151,61,178,238,165,60,80,26,45,189,5,111,159,189,227,107,89,61,180,165,58,61,129,162,203,189,10,75,47,61,255,220,246,61,209,8,24,62,198,235,90,189,121,32,53,62,134,85,0,60,72,53,158,189,252,201,49,190,190,155,210,188,51,125,161,60,173,230,26,190,93,148,8,189,207,67,186,188,98,122,32,62,171,66,169,61,138,239,201,188,68,105,176,61,107,11,41,190,107,4,56,189,204,176,114,61,84,88,104,189,133,254,157,61,225,240,224,189,130,41,173,187,174,230,6,60,228,26,7,190,229,218,169,189,79,34,177,61,97,85,242,189,83,95,142,61,124,142,179,61,189,236,173,60,179,218,71,60,24,72,189,189,75,35,60,62,135,0,62,62,142,6,163,61,171,177,127,189,91,51,39,62,207,5,71,60,210,90,40,61,106,189,159,189,18,69,146,61,178,111,17,62,75,212,68,62,185,175,136,187,5,123,31,189,133,141,252,61,158,202,61,190,197,174,26,189,11,125,173,60,249,115,120,61,132,174,20,62,251,72,250,59,68,194,195,60,102,135,19,61,143,55,4,186,229,213,147,61,141,9,102,189,168,15,90,189,6,91,131,189,85,8,230,189,16,176,22,190,91,133,2,190,180,67,5,190,249,170,58,62,61,133,24,62,98,164,162,60,127,197,180,187,221,12,239,61,70,95,13,62,32,208,33,190,179,170,5,61,233,214,152,61,20,199,213,189,28,197,1,61,19,247,156,188,20,185,252,189,139,116,11,62,121,140,138,189,14,241,232,61,86,55,36,61,213,92,142,61,62,120,113,189,245,41,6,60,120,103,40,62,63,57,25,61,215,155,151,61,167,155,31,189,185,148,28,189,238,224,0,61,22,17,116,189,117,26,238,189,99,150,181,59,106,110,13,190,132,78,194,187,67,223,54,62,216,237,94,190,45,165,176,60,197,12,201,189,47,44,231,189,233,239,127,59,96,164,43,61,186,29,107,189,123,122,43,190,234,106,231,189,176,44,35,62,142,111,48,190,53,44,6,190,3,71,211,189,44,179,54,189,201,17,40,62,150,234,144,61,21,168,218,189,132,6,18,190,231,234,239,189,78,185,26,190,1,76,132,189,55,23,165,189,61,155,150,189,6,10,0,189,230,37,197,61,12,210,61,188,208,112,74,61,48,186,214,61,160,236,181,189,114,180,174,61,26,110,78,61,97,106,11,62,10,223,5,190,244,54,216,189,23,145,184,61,117,135,224,189,246,141,209,59,180,93,143,189,135,88,169,189,84,227,1,62,49,29,61,62,179,134,7,62,155,186,221,60,74,236,231,188,157,216,141,61,52,244,234,61,17,212,72,61,222,97,81,189,22,141,135,60,69,39,126,61,106,179,124,189,22,57,8,62,181,204,155,189,168,191,19,62,111,38,253,187,1,128,227,188,89,62,21,62,179,246,140,189,163,248,72,62,81,169,248,61,100,229,108,61,196,202,60,61,31,209,35,62,53,252,73,189,119,98,35,190,133,75,88,190,25,134,231,61,71,97,21,190,41,21,10,62,85,141,7,62,107,212,204,189,80,213,10,190,164,158,132,189,15,102,159,61,73,249,167,188,216,71,85,190,45,186,249,61,255,36,2,190,20,122,120,188,111,237,18,61,55,151,173,189,9,207,50,190,110,181,34,60,111,211,252,61,27,6,52,189,179,85,70,60,4,208,78,61,135,204,1,189,10,149,233,61,53,249,151,189,149,82,4,61,55,85,141,189,69,225,157,61,88,156,66,190,142,103,137,61,245,206,182,61,47,83,77,189,161,248,43,61,50,132,231,189,211,4,212,188,250,60,9,188,59,160,194,189,50,3,120,60,45,127,46,190,65,183,99,61,22,41,8,62,94,233,70,189,163,73,252,189,24,178,7,62,214,146,46,61,212,83,16,190,70,96,35,62,10,96,18,190,220,248,148,60,14,211,43,61,55,92,36,190,110,239,146,58,158,13,53,190,144,182,247,189,232,50,209,61,63,223,83,189,179,85,241,61,237,104,1,61,177,96,139,61,104,170,219,60,35,62,232,189,26,229,237,189,174,140,95,189,43,132,142,189,50,73,225,189,14,148,179,189,234,130,137,189,174,70,222,60,9,130,75,188,240,96,88,190,204,130,90,190,185,203,105,189,197,130,48,190,165,207,152,61,246,25,85,61,162,126,189,60,82,116,105,61,184,159,196,61,199,108,232,61,115,68,135,61,148,11,226,189,51,161,71,59,5,124,251,189,134,19,4,190,85,178,10,190,44,71,0,190,65,93,4,190,61,199,44,62,243,126,67,61,163,4,8,190,116,184,43,190,19,101,91,189,24,74,69,59,8,217,199,61,42,163,131,188,20,150,10,62,218,8,108,61,164,239,236,189,8,212,206,187,42,143,76,60,190,9,6,62,209,193,128,189,200,166,196,188,29,48,17,190,76,130,185,189,136,224,0,190,79,164,18,190,171,190,10,62,103,21,146,188,10,164,83,189,72,64,112,189,140,205,19,190,182,134,246,189,102,112,71,189,126,80,201,60,74,75,206,61,108,156,68,61,93,250,6,190,204,249,180,188,225,7,208,188,176,43,159,189,197,38,19,190,125,106,166,189,14,199,169,61,89,92,12,62,1,77,88,61,45,156,245,189,45,31,72,190,255,77,89,190,206,188,110,188,70,196,90,190,14,120,49,190,131,224,148,188,47,41,66,189,221,83,220,189,218,104,15,189,201,217,44,190,168,248,136,59,41,36,137,189,193,78,14,62,240,25,66,190,89,171,10,190,158,103,38,62,75,231,152,189,25,14,250,188,52,1,220,189,39,219,13,188,218,255,242,189,80,30,200,61,231,5,59,189,254,69,32,188,46,125,2,189,189,208,98,62,164,126,196,188,204,115,25,62,41,153,197,61,114,149,213,60,236,27,136,189,4,27,52,190,233,64,209,187,100,192,72,61,170,1,7,62,183,208,133,59,187,111,13,189,216,65,199,189,122,249,153,189,162,97,152,61,128,209,7,189,236,200,237,189,83,222,77,189,149,68,198,189,36,114,183,61,12,153,248,189,190,203,69,60,234,170,111,60,237,222,253,61,182,192,96,62,109,79,205,189,71,29,209,189,226,230,38,189,105,125,76,61,198,60,23,62,192,18,176,61,176,106,36,61,53,134,237,189,235,236,237,61,192,74,66,189,141,67,106,61,2,20,222,188,33,181,62,61,65,235,133,61,165,217,40,189,149,76,240,189,22,235,172,61,243,7,33,62,37,202,13,62,162,214,161,189,194,114,211,61,209,197,239,189,11,168,128,61,150,87,225,61,23,48,79,60,217,240,5,190,30,126,183,187,97,64,157,61,240,242,158,187,33,136,217,61,207,159,111,61,124,161,168,189,120,99,24,62,146,47,96,189,28,111,197,61,30,221,37,62,179,63,74,189,205,89,225,189,169,193,135,59,129,62,135,189,231,17,234,189,143,22,227,61,10,88,29,60,91,236,16,62,40,201,38,190,176,164,107,61,190,146,44,190,6,61,159,189,172,226,230,189,130,88,12,190,62,89,188,60,250,233,83,61,67,132,5,189,193,22,227,189,132,46,176,60,118,39,182,57,74,16,74,60,41,157,3,62,37,232,221,61,90,52,238,61,71,227,15,62,127,108,163,187,48,214,56,61,22,11,1,58,254,46,56,189,255,30,176,61,133,131,24,190,112,159,155,187,213,124,69,62,231,204,21,61,36,129,10,190,44,244,59,62,48,22,37,60,248,255,43,62,55,60,122,61,126,98,178,189,91,251,184,61,8,155,25,190,187,176,26,190,222,61,34,62,63,170,210,61,144,188,107,61,50,135,136,61,52,37,13,190,90,69,40,62,68,120,216,61,43,147,14,62,7,60,206,60,9,8,65,189,56,203,217,59,106,190,113,61,252,176,65,189,108,145,243,189,24,30,254,189,200,116,157,189,147,1,19,62,254,193,134,60,116,208,200,189,97,131,222,189,60,226,168,188,224,128,37,189,126,69,6,190,7,169,133,61,120,81,153,60,60,32,8,190,232,235,17,62,14,89,213,189,23,217,220,189,103,234,46,187,216,158,36,190,55,179,200,61,40,143,138,60,127,136,147,61,41,184,245,61,4,240,231,189,108,180,208,189,252,180,30,190,118,134,117,61,164,40,32,189,127,180,37,190,223,26,233,189,3,250,158,189,233,238,148,187,135,130,28,189,223,13,205,189,98,167,37,190,169,197,131,189,194,161,136,189,119,66,95,61,84,102,188,61,148,168,36,190,142,18,16,61,191,136,26,189,98,237,229,61,83,60,149,61,55,31,224,189,96,142,56,189,55,54,57,189,19,62,158,189,54,140,118,61,211,252,170,188,165,127,8,61,120,170,90,189,123,244,130,61,74,16,11,62,3,211,148,189,217,71,52,62,120,206,173,189,98,81,173,60,197,57,14,190,57,46,229,60,78,58,96,189,68,158,57,62,85,137,6,187,254,86,135,61,165,71,5,190,23,147,67,62,77,92,40,188,13,231,49,57,251,108,103,61,186,237,224,61,207,254,147,61,209,186,31,189,182,131,106,61,30,48,171,61,213,90,38,62,35,5,63,189,234,184,3,62,249,252,24,188,197,239,99,62,41,0,109,189,103,130,159,61,142,255,84,189,127,97,49,189,244,240,12,61,0,254,160,189,160,242,33,190,92,38,155,58,7,243,201,60,176,15,125,188,9,189,56,62,89,8,136,60,75,109,233,60,192,183,34,62,70,202,21,190,76,178,151,187,10,226,16,62,187,253,12,62,237,185,173,189,106,126,28,62,58,183,211,189,238,143,47,61,27,170,4,190,99,32,238,189,160,193,164,188,215,251,162,189,225,169,150,61,196,147,40,62,161,174,4,62,20,89,190,61,113,210,128,189,248,44,250,61,21,146,28,190,238,224,33,62,138,22,206,61,19,227,11,62,251,170,182,61,170,141,143,189,167,72,12,189,240,0,84,61,91,220,13,190,192,44,254,61,191,209,217,189,98,52,21,190,135,112,232,61,73,206,60,62,193,33,25,190,0,205,4,189,39,91,121,60,104,44,199,189,235,119,235,189,201,50,14,62,88,122,73,61,96,147,0,190,120,122,5,62,11,61,9,190,115,29,9,62,204,106,133,56,199,96,176,188,156,238,133,189,145,183,163,189,45,51,210,61,151,72,226,61,94,235,221,189,227,100,190,189,22,81,179,61,187,169,143,188,250,91,71,190,146,185,51,184,1,208,10,190,86,115,48,189,240,97,239,189,172,46,141,189,138,25,46,62,103,105,227,60,61,66,88,60,77,121,76,189,74,201,227,61,109,171,82,189,215,192,13,61,240,119,145,60,199,230,173,189,117,168,201,61,56,113,67,61,152,24,246,60,179,119,64,61,160,185,170,187,18,34,59,190,210,51,204,61,134,167,148,61,255,150,190,61,110,180,137,61,150,130,63,190,171,59,41,190,228,204,182,61,247,130,102,188,148,103,66,190,4,53,214,189,3,48,144,188,188,126,253,60,70,76,247,61,168,237,202,61,154,220,103,59,139,157,12,190,126,12,24,62,49,181,148,61,103,237,249,61,15,107,49,61,226,6,192,61,105,167,35,189,92,95,0,190,203,231,240,189,105,47,196,59,212,86,199,189,138,204,244,189,113,79,36,190,164,65,168,189,116,251,4,190,94,158,76,59,161,171,55,61,220,94,46,190,114,187,12,62,240,51,1,61,96,242,2,190,225,215,218,188,178,111,118,60,169,93,13,190,158,19,240,61,240,41,189,61,238,254,0,61,45,73,2,190,135,108,127,60,251,163,158,189,226,94,161,189,186,98,96,189,57,48,248,189,212,110,51,61,104,192,182,60,121,117,247,61,76,59,195,60,90,129,122,60,189,43,146,189,51,192,221,188,250,251,30,190,168,120,192,60,109,186,41,62,231,223,26,189,230,183,216,189,211,190,224,61,245,189,193,189,180,51,11,190,149,121,79,61,117,145,55,62,13,79,194,189,148,113,23,189,86,214,108,61,228,106,158,61,166,174,136,61,12,134,238,189,195,103,219,60,164,211,4,189,73,89,200,61,74,207,175,57,87,155,201,59,36,46,208,189,32,229,36,188,7,237,192,189,31,87,143,189,218,141,119,189,32,43,82,190,165,223,9,190,78,172,155,189,126,221,143,189,21,249,94,60,232,115,91,62,221,201,143,61,67,163,181,61,178,42,188,61,168,112,169,189,201,8,77,62,206,78,241,189,245,211,117,62,140,16,247,60,49,27,186,60,213,158,19,62,106,164,244,189,69,39,217,61,255,99,22,190,41,173,199,189,200,158,37,189,39,179,189,189,40,199,48,188,248,73,125,61,231,78,147,61,26,118,158,188,121,69,243,61,9,9,195,189,0,102,13,61,213,131,20,61,132,213,35,62,11,180,5,190,19,187,229,189,134,28,151,61,75,244,191,189,238,208,75,188,35,131,25,61,247,20,216,189,186,114,174,189,129,227,44,62,226,162,132,189,124,77,2,62,77,47,164,61,156,122,168,60,243,140,37,189,44,40,35,62,216,231,210,60,33,214,71,62,147,225,170,61,221,6,20,190,208,196,161,189,157,242,143,61,32,60,128,61,252,198,243,61,76,26,194,61,13,194,164,61,95,149,3,62,8,18,131,186,24,226,228,188,137,91,247,189,18,140,87,61,148,131,131,61,254,196,99,188,228,238,227,189,38,155,151,189,185,224,2,190,107,174,205,189,38,149,246,61,191,113,79,61,174,205,10,62,218,171,207,60,176,21,106,61,73,62,49,62,61,131,240,188,22,135,170,60,103,30,24,189,158,61,34,57,33,251,20,190,180,19,173,189,69,108,253,188,182,191,248,59,198,175,142,189,55,247,254,188,89,96,35,190,134,176,77,188,19,11,128,189,190,51,95,61,202,21,174,61,75,241,100,189,190,63,148,188,152,197,132,61,143,14,220,189,114,115,203,60,76,55,23,190,0,41,6,62,169,62,205,189,173,2,95,61,89,158,191,60,205,34,228,189,10,155,42,189,212,105,68,190,239,230,164,61,100,154,111,190,118,11,83,186,0,173,183,61,242,255,23,190,204,86,172,61,90,81,16,61,130,254,177,189,198,221,35,189,242,54,96,189,233,232,146,60,245,251,212,61,0,54,66,60,94,130,199,189,254,220,140,61,224,143,25,190,126,140,251,61,155,221,130,189,161,1,118,189,250,116,24,62,197,69,196,189,110,25,151,61,19,149,130,60,202,26,134,189,87,220,226,188,247,146,37,188,126,127,56,189,197,28,38,62,78,18,131,189,225,89,202,189,28,78,107,61,230,44,221,59,95,150,153,189,177,13,166,60,0,29,2,189,61,213,222,189,47,178,151,189,11,31,33,187,203,191,185,61,254,6,68,190,153,243,43,61,164,122,194,61,121,145,141,188,36,71,164,61,106,104,58,188,78,45,13,190,222,228,75,189,90,251,49,190,4,49,38,62,65,186,203,61,236,218,25,190,119,232,202,61,163,46,197,186,39,193,48,62,34,199,237,189,99,81,98,189,138,73,15,62,147,5,37,190,41,243,61,190,153,230,201,189,152,188,66,62,204,38,197,189,249,97,112,60,128,62,138,60,77,196,52,189,249,232,10,190,87,232,240,189,57,59,179,188,242,112,37,190,221,133,54,61,20,57,122,188,13,222,42,61,41,45,155,61,95,233,220,60,159,166,20,60,137,2,101,61,105,166,198,189,150,22,84,189,247,234,4,62,142,184,253,61,50,145,19,190,198,145,216,61,96,112,67,62,208,163,185,189,127,43,18,189,207,112,91,61,218,182,44,62,132,7,51,190,39,184,36,190,206,86,0,190,116,42,80,61,154,8,17,62,23,255,35,62,231,193,9,190,82,235,196,189,16,59,25,62,96,114,179,60,194,127,47,62,185,193,215,60,164,26,243,61,185,104,182,189,214,150,195,61,73,28,66,189,126,34,122,61,112,69,239,189,218,21,128,188,28,240,166,189,201,9,134,189,244,15,147,186,167,250,192,61,222,59,11,62,228,112,207,189,79,147,46,62,109,206,209,61,214,192,191,61,108,81,8,62,88,70,30,190,68,13,36,62,9,241,175,189,61,134,67,190,157,253,216,60,170,124,155,58,174,90,59,190,112,29,20,190,153,115,51,190,254,26,248,189,148,91,3,62,0,175,7,190,215,25,156,189,165,174,209,189,187,241,115,61,82,42,43,190,66,21,14,190,67,120,17,62,155,120,242,59,126,214,175,189,60,70,138,61,92,15,146,187,130,105,132,61,210,177,4,62,76,114,170,188,5,177,159,61,159,240,16,62,105,96,183,61,65,82,187,59,251,72,135,60,91,123,21,61,132,158,48,190,5,159,216,61,46,7,56,62,105,107,72,61,135,250,61,61,200,141,57,62,233,67,246,61,91,183,231,189,45,26,200,189,111,187,51,188,55,121,140,189,45,75,248,60,176,49,27,62,149,188,68,189,32,229,186,61,127,254,125,61,95,221,57,62,108,187,235,189,174,121,66,61,203,143,155,189,72,247,118,60,163,217,25,190,114,56,79,61,208,203,148,61,197,37,9,62,166,171,19,190,38,118,209,188,99,16,60,60,145,125,190,61,16,115,158,188,184,50,47,190,110,68,125,61,10,177,167,187,6,145,23,190,0,165,221,61,194,0,229,186,167,70,33,189,253,206,173,189,189,104,23,62,137,106,44,189,132,173,23,189,206,12,208,61,247,14,106,61,94,183,144,188,202,163,61,61,17,134,27,190,18,212,25,62,104,35,30,62,207,83,32,190,197,239,188,189,33,43,16,190,191,212,128,189,212,172,242,189,99,61,230,61,202,155,224,189,212,237,30,62,162,45,212,60,116,254,253,60,232,31,239,58,124,84,202,188,6,210,100,189,45,47,218,188,183,254,133,61,114,252,42,62,246,236,41,62,118,117,203,189,197,129,143,189,103,119,16,62,92,149,32,189,219,90,184,189,227,54,18,189,130,53,47,189,66,165,147,61,203,105,178,61,216,241,166,189,33,73,130,61,4,38,33,62,180,138,56,62,193,1,165,188,255,11,31,62,39,5,21,190,212,56,137,189,155,133,194,189,99,23,23,190,4,184,98,61,137,209,250,61,49,135,192,61,18,8,109,187,235,6,135,189,127,140,82,62,153,16,66,188,19,218,222,61,66,94,224,61,185,33,164,61,239,130,241,61,84,219,5,61,229,207,250,189,10,160,177,186,197,188,236,189,20,170,28,190,106,242,137,189,184,66,33,62,215,238,207,188,198,199,172,61,54,73,126,189,180,57,175,61,97,145,159,61,246,83,7,62,165,155,218,189,101,192,169,59,27,203,27,190,137,128,29,62,19,248,181,189,239,35,97,61,245,58,174,61,163,90,226,189,173,246,45,61,230,165,214,60,121,69,69,62,0,129,208,189,4,18,52,62,5,176,65,62,178,190,110,189,91,207,178,61,231,154,6,62,133,86,158,61,166,44,107,61,141,126,235,61,191,82,24,62,8,156,44,62,26,30,18,190,159,8,187,189,174,6,160,61,229,41,204,189,218,196,250,189,13,216,12,62,228,237,53,62,145,234,166,60,59,85,17,62,2,216,8,62,241,75,232,189,86,34,121,61,65,16,122,189,45,81,50,61,184,190,211,60,247,97,205,189,47,242,35,62,150,255,54,61,92,246,196,61,171,52,138,61,223,82,92,188,250,39,162,189,114,250,18,61,227,109,33,190,110,236,167,61,52,189,53,187,229,29,23,60,142,46,160,189,156,181,202,189,228,89,70,61,236,178,29,190,176,219,169,189,93,83,250,61,232,104,203,189,124,77,181,61,44,24,13,62,185,232,114,61,73,127,123,59,141,170,247,187,83,230,33,190,238,193,195,189,88,245,137,189,60,176,85,56,255,100,97,186,117,8,229,61,137,129,238,189,58,74,1,190,22,109,220,60,154,242,5,62,8,56,254,61,7,104,128,60,125,193,230,189,70,5,164,189,192,248,133,61,53,123,72,190,68,141,210,188,176,193,196,189,253,6,11,62,227,6,158,61,153,115,116,61,202,179,218,61,88,1,42,189,59,86,222,61,207,16,215,60,61,103,79,187,81,229,205,60,252,58,214,61,97,240,129,189,197,76,244,60,223,120,0,190,49,137,8,190,97,149,24,188,226,38,187,59,17,46,3,62,73,126,181,61,130,91,163,189,51,122,147,61,148,19,14,190,216,134,25,190,19,152,46,190,205,145,2,190,223,88,42,62,203,95,34,190,234,43,165,61,230,175,7,190,215,119,57,190,162,243,1,62,165,251,32,190,7,38,227,187,150,92,227,189,246,50,226,189,27,95,250,188,176,85,6,190,224,182,0,62,21,56,7,190,130,176,138,189,211,250,210,189,11,193,50,62,178,209,6,190,108,221,40,62,225,126,194,189,73,126,134,189,180,215,187,189,40,137,18,62,214,163,66,61,222,118,148,60,171,240,70,61,51,132,123,189,158,102,20,189,142,183,26,190,93,235,219,61,188,143,113,187,243,65,242,189,247,70,131,189,40,18,112,189,146,217,144,61,57,205,28,62,59,41,243,60,8,111,23,189,190,50,247,189,159,86,199,61,154,49,104,60,97,6,5,62,8,48,43,190,73,91,100,189,0,27,176,188,123,190,101,189,184,152,89,61,37,98,6,62,128,0,96,189,143,197,52,190,163,87,25,190,144,103,109,189,109,85,54,189,62,139,154,189,115,89,228,188,174,19,238,60,83,59,243,189,179,213,145,61,87,169,177,61,187,186,148,188,14,226,193,188,189,254,47,189,82,251,132,189,14,103,112,60,93,22,147,189,230,145,183,60,99,35,14,190,81,152,230,61,62,5,160,189,11,18,212,61,235,88,59,61,133,138,250,61,52,93,163,61,120,113,97,61,13,101,164,61,65,179,62,61,163,10,244,189,70,200,19,62,23,117,17,60,166,114,19,189,135,13,30,61,134,119,67,189,124,161,54,190,255,21,85,61,242,50,177,61,146,38,212,61,88,71,43,62,97,205,3,62,151,83,252,60,226,10,67,61,68,177,6,62,80,36,236,60,235,206,127,189,57,0,161,61,84,40,86,60,162,182,55,61,152,12,153,61,9,212,161,61,232,155,243,189,43,20,225,189,10,235,128,61,196,202,208,188,76,167,25,62,110,251,69,60,25,89,139,188,51,247,43,62,85,28,6,62,43,172,233,61,196,135,193,61,110,147,128,61,239,28,243,61,13,139,115,61,188,187,140,189,112,39,77,61,229,80,103,189,59,137,154,188,71,56,11,62,47,249,47,190,140,58,17,190,48,88,140,61,139,254,205,188,2,154,35,190,201,219,47,190,88,254,119,189,50,87,61,190,132,235,153,189,156,12,59,189,70,191,226,61,13,51,141,189,194,25,27,60,56,106,47,189,218,187,55,189,243,89,220,61,156,78,17,62,185,13,166,189,42,55,33,61,98,65,133,189,200,145,161,189,180,103,152,61,132,55,56,190,58,40,1,61,76,41,17,62,183,117,3,189,174,189,57,188,178,80,184,61,72,68,155,60,121,153,75,189,175,186,97,189,240,246,50,190,28,210,94,189,224,5,44,189,106,35,68,61,52,104,158,189,245,131,206,188,21,169,146,58,162,221,181,188,225,153,209,189,29,119,97,188,27,111,27,62,167,119,233,59,119,93,192,61,219,1,168,61,251,59,241,60,63,50,62,62,153,131,79,189,46,173,215,61,153,69,223,189,65,85,61,190,140,92,0,190,117,81,208,61,113,124,23,190,249,225,8,188,175,99,211,61,109,231,147,61,148,105,64,61,114,253,29,190,89,100,65,190,106,4,197,61,198,96,10,62,217,224,13,188,208,78,134,60,123,53,151,189,162,61,56,189,172,61,146,188,57,42,71,189,172,179,63,190,30,148,218,60,254,231,149,189,128,116,178,61,26,47,58,190,168,185,221,61,61,235,109,186,98,240,2,190,117,255,247,61,97,224,60,190,253,90,178,189,163,35,41,61,19,39,200,61,135,216,48,61,232,75,37,190,46,26,203,61,108,186,243,61,97,165,137,61,183,250,30,62,168,34,176,187,229,162,205,58,49,11,157,61,245,236,6,62,236,227,174,61,98,40,235,61,118,152,246,61,224,119,63,60,170,107,238,61,185,248,18,189,9,1,77,189,175,204,140,189,126,228,183,61,123,47,130,189,91,81,208,189,210,195,174,188,176,44,0,187,6,76,71,189,63,225,128,189,255,107,74,190,29,168,27,62,158,238,6,62,172,92,75,62,180,118,130,61,234,184,7,62,53,117,30,62,78,255,129,188,2,125,160,61,251,218,69,190,77,240,4,62,104,44,222,189,209,68,28,188,188,181,24,188,230,6,6,190,80,254,24,62,142,192,205,61,144,156,175,61,105,236,39,62,144,212,254,188,189,55,196,188,14,49,52,190,118,55,231,188,79,36,165,61,38,89,195,61,127,103,164,61,48,135,35,61,223,49,223,189,143,111,18,190,31,161,53,190,219,134,79,190,66,247,3,62,141,104,176,61,134,219,225,188,176,138,162,61,133,37,62,190,144,90,57,190,26,109,25,190,13,43,32,190,248,191,178,61,198,232,211,61,115,195,87,190,168,251,113,61,35,62,223,189,46,70,3,190,157,167,29,190,178,157,16,190,203,151,0,189,223,167,170,61,3,190,237,61,92,28,115,61,147,236,214,61,109,231,188,189,33,108,19,61,234,98,235,189,101,185,2,189,246,80,10,190,193,74,177,61,94,18,27,62,108,197,19,62,145,76,142,189,32,235,237,189,182,200,64,189,1,168,29,190,151,210,199,189,232,245,188,189,15,77,90,188,237,107,251,61,228,193,98,61,145,12,69,62,151,177,4,61,84,179,36,190,147,49,168,61,18,15,230,61,75,150,83,60,118,208,251,61,180,99,33,59,48,149,169,61,207,0,252,60,15,184,20,189,226,117,147,61,212,180,184,189,50,11,20,62,29,203,61,61,147,248,188,61,160,233,8,190,49,209,183,189,217,45,203,61,13,138,186,61,194,175,185,61,65,219,151,61,151,122,7,190,71,211,106,188,152,163,130,61,105,4,8,190,184,40,85,59,208,80,221,61,2,118,222,187,154,196,193,59,32,83,115,190,61,69,74,190,204,93,65,61,209,46,176,61,26,224,228,60,81,82,198,61,241,230,249,189,218,25,111,61,133,107,192,189,102,68,208,189,96,3,18,189,90,147,15,62,13,65,46,62,218,72,37,62,77,20,138,60,212,205,128,61,97,211,32,61,219,175,209,61,167,162,149,189,227,69,52,189,42,40,34,62,154,43,219,189,162,129,203,189,111,123,6,62,144,237,42,190,227,90,243,189,194,7,61,189,42,138,37,62,244,15,185,189,208,20,127,60,236,180,68,61,80,66,150,61,59,104,58,61,42,35,134,61,150,155,127,61,222,174,231,189,113,85,37,189,13,135,0,190,30,12,237,61,105,154,9,190,246,223,220,61,228,169,3,190,143,110,254,61,129,87,134,60,240,49,21,62,112,146,189,61,157,21,162,61,226,19,141,188,136,60,41,62,80,235,4,61,166,194,232,188,140,83,46,62,206,159,43,61,132,232,222,61,229,163,75,188,53,51,189,189,35,242,200,57,163,105,174,61,4,170,53,189,107,54,226,60,217,200,145,61,196,95,8,62,91,64,78,190,99,181,37,190,225,32,63,189,235,76,42,190,191,222,8,190,58,126,20,190,127,90,248,188,120,150,215,189,186,178,19,62,32,165,148,188,150,79,89,189,128,3,4,189,233,24,161,61,97,219,58,190,70,42,74,190,60,38,128,189,233,98,246,187,218,12,12,62,112,124,173,188,161,162,193,189,159,23,216,61,172,231,208,60,222,51,248,189,24,94,115,189,207,157,107,189,28,67,12,190,106,220,233,189,140,49,197,61,152,169,9,61,157,102,129,60,141,123,152,61,27,98,246,61,232,99,79,190,214,187,108,189,75,212,215,61,120,138,101,60,199,5,145,189,143,137,10,190,221,132,219,61,181,116,174,61,178,199,21,62,192,209,65,61,113,147,93,190,49,169,38,190,142,49,48,190,109,159,29,190,248,236,182,61,100,91,40,62,228,127,156,189,206,149,207,61,134,118,189,189,170,72,59,190,98,100,2,190,10,212,40,190,72,35,183,189,163,115,39,190,175,176,12,62,156,114,29,62,105,178,61,189,151,83,96,61,241,145,145,189,243,243,90,189,89,155,250,61,220,46,110,61,167,42,58,190,38,197,58,190,47,130,123,61,13,59,33,62,110,13,37,62,134,118,11,189,174,125,10,190,241,81,223,189,69,42,47,59,109,237,207,189,177,76,198,61,70,234,11,62,231,96,106,188,243,229,220,189,34,60,126,61,19,81,220,61,238,91,225,61,142,117,177,189,58,154,194,189,183,161,199,188,123,95,133,189,153,33,18,62,68,9,58,190,87,208,45,189,116,227,88,61,5,245,127,61,49,180,165,60,132,207,144,189,27,151,141,61,124,124,172,61,101,191,210,189,156,204,81,190,227,105,178,61,170,64,142,61,201,181,36,62,127,139,191,60,48,108,43,61,225,212,14,62,74,130,231,189,40,156,251,61,23,9,69,190,222,47,64,190,190,8,3,61,25,185,144,59,246,243,132,189,143,19,27,190,136,98,25,61,250,57,142,188,52,169,201,61,162,41,155,61,31,250,49,189,154,90,90,61,35,221,183,189,199,141,20,190,94,235,33,62,212,156,250,186,27,36,3,190,46,222,213,58,222,15,206,61,250,185,132,60,187,128,